DEPTH = 86528;
WIDTH = 8;
ADDRESS_RADIX = UNS;
DATA_RADIX = HEX;
CONTENT BEGIN
  0 : F0;
  1 : 0A;
  2 : 16;
  3 : F9;
  4 : F0;
  5 : F6;
  6 : F7;
  7 : EF;
  8 : EF;
  9 : EC;
  10 : F5;
  11 : 05;
  12 : F8;
  13 : 0D;
  14 : 14;
  15 : 12;
  16 : 10;
  17 : 04;
  18 : 01;
  19 : FD;
  20 : F4;
  21 : F5;
  22 : F4;
  23 : F4;
  24 : F8;
  25 : 01;
  26 : 1A;
  27 : 11;
  28 : 15;
  29 : 1D;
  30 : 15;
  31 : 14;
  32 : 1F;
  33 : 18;
  34 : 12;
  35 : 09;
  36 : FD;
  37 : F9;
  38 : 01;
  39 : 09;
  40 : 17;
  41 : 22;
  42 : 20;
  43 : 16;
  44 : 16;
  45 : 13;
  46 : 07;
  47 : F9;
  48 : F3;
  49 : F8;
  50 : 10;
  51 : 03;
  52 : 04;
  53 : 10;
  54 : 0F;
  55 : 1A;
  56 : 03;
  57 : F6;
  58 : E2;
  59 : E8;
  60 : FA;
  61 : E8;
  62 : EF;
  63 : F5;
  64 : 00;
  65 : F5;
  66 : 00;
  67 : 00;
  68 : 0F;
  69 : F7;
  70 : FA;
  71 : FA;
  72 : FD;
  73 : F6;
  74 : F0;
  75 : EC;
  76 : F9;
  77 : 0C;
  78 : F4;
  79 : 0A;
  80 : 1C;
  81 : 1C;
  82 : 16;
  83 : 15;
  84 : 05;
  85 : F3;
  86 : EC;
  87 : F1;
  88 : F3;
  89 : 04;
  90 : FE;
  91 : FE;
  92 : 08;
  93 : FC;
  94 : 07;
  95 : 11;
  96 : 00;
  97 : F9;
  98 : F3;
  99 : EF;
  100 : EF;
  101 : 03;
  102 : 03;
  103 : 0F;
  104 : 13;
  105 : 04;
  106 : 06;
  107 : 09;
  108 : 02;
  109 : FA;
  110 : F6;
  111 : F6;
  112 : FC;
  113 : FB;
  114 : 06;
  115 : 0E;
  116 : F3;
  117 : 08;
  118 : 02;
  119 : F6;
  120 : F4;
  121 : 0A;
  122 : FC;
  123 : FD;
  124 : 03;
  125 : 0A;
  126 : 16;
  127 : 16;
  128 : 1A;
  129 : 0A;
  130 : 01;
  131 : F1;
  132 : EE;
  133 : E3;
  134 : F4;
  135 : FA;
  136 : 00;
  137 : 11;
  138 : 1A;
  139 : 2A;
  140 : 25;
  141 : 28;
  142 : 02;
  143 : 02;
  144 : FA;
  145 : E6;
  146 : CA;
  147 : C4;
  148 : C8;
  149 : D7;
  150 : F2;
  151 : 0F;
  152 : 31;
  153 : 34;
  154 : 01;
  155 : 0E;
  156 : 01;
  157 : EA;
  158 : E1;
  159 : F7;
  160 : 00;
  161 : D8;
  162 : EF;
  163 : F6;
  164 : F4;
  165 : 15;
  166 : 17;
  167 : 03;
  168 : 13;
  169 : 03;
  170 : 00;
  171 : 04;
  172 : 00;
  173 : 07;
  174 : 02;
  175 : 00;
  176 : F7;
  177 : FC;
  178 : FC;
  179 : 03;
  180 : 04;
  181 : FD;
  182 : FF;
  183 : 03;
  184 : 04;
  185 : 01;
  186 : 06;
  187 : 0B;
  188 : FC;
  189 : F1;
  190 : F6;
  191 : F1;
  192 : F4;
  193 : 00;
  194 : 01;
  195 : 00;
  196 : 07;
  197 : 06;
  198 : 0F;
  199 : 12;
  200 : 05;
  201 : 00;
  202 : FF;
  203 : FA;
  204 : F5;
  205 : F3;
  206 : F5;
  207 : FF;
  208 : 00;
  209 : 04;
  210 : 05;
  211 : 0B;
  212 : 0B;
  213 : 09;
  214 : 0B;
  215 : 09;
  216 : FA;
  217 : F0;
  218 : FC;
  219 : 08;
  220 : FD;
  221 : 03;
  222 : FE;
  223 : FD;
  224 : 04;
  225 : 03;
  226 : 06;
  227 : FE;
  228 : FF;
  229 : 07;
  230 : 07;
  231 : 10;
  232 : 0C;
  233 : 03;
  234 : FC;
  235 : FD;
  236 : 01;
  237 : 04;
  238 : FE;
  239 : F5;
  240 : F5;
  241 : 05;
  242 : 12;
  243 : 0F;
  244 : 10;
  245 : FF;
  246 : 01;
  247 : FE;
  248 : F4;
  249 : F7;
  250 : F0;
  251 : F9;
  252 : F2;
  253 : F7;
  254 : 10;
  255 : 0A;
  256 : 0D;
  257 : 0B;
  258 : 01;
  259 : F8;
  260 : 00;
  261 : F7;
  262 : FA;
  263 : F4;
  264 : FB;
  265 : FC;
  266 : 0C;
  267 : 0E;
  268 : 0E;
  269 : 08;
  270 : 09;
  271 : FB;
  272 : 00;
  273 : 02;
  274 : FE;
  275 : 00;
  276 : FF;
  277 : F8;
  278 : 02;
  279 : 0E;
  280 : 09;
  281 : 08;
  282 : 01;
  283 : 02;
  284 : F7;
  285 : FE;
  286 : 09;
  287 : 06;
  288 : FF;
  289 : FF;
  290 : 01;
  291 : 02;
  292 : 07;
  293 : 05;
  294 : FD;
  295 : F7;
  296 : F7;
  297 : F3;
  298 : F9;
  299 : 06;
  300 : 05;
  301 : FB;
  302 : 01;
  303 : FD;
  304 : FF;
  305 : 00;
  306 : FB;
  307 : F5;
  308 : F6;
  309 : F3;
  310 : FC;
  311 : FE;
  312 : FF;
  313 : FC;
  314 : 07;
  315 : 0A;
  316 : 06;
  317 : FE;
  318 : FE;
  319 : 00;
  320 : 01;
  321 : FC;
  322 : F6;
  323 : FC;
  324 : FA;
  325 : FD;
  326 : 03;
  327 : 0A;
  328 : 0A;
  329 : 03;
  330 : 08;
  331 : FF;
  332 : 07;
  333 : 0A;
  334 : 04;
  335 : 00;
  336 : FD;
  337 : 01;
  338 : FE;
  339 : 00;
  340 : 02;
  341 : 01;
  342 : 01;
  343 : 00;
  344 : 02;
  345 : FF;
  346 : 00;
  347 : F9;
  348 : 02;
  349 : FF;
  350 : 03;
  351 : 03;
  352 : 05;
  353 : 02;
  354 : 03;
  355 : 04;
  356 : 02;
  357 : 03;
  358 : F8;
  359 : F8;
  360 : F7;
  361 : FC;
  362 : FB;
  363 : 03;
  364 : FE;
  365 : 02;
  366 : 09;
  367 : 08;
  368 : 09;
  369 : 01;
  370 : 02;
  371 : FE;
  372 : F9;
  373 : F7;
  374 : F8;
  375 : FB;
  376 : FD;
  377 : 05;
  378 : 00;
  379 : 06;
  380 : 09;
  381 : 03;
  382 : 09;
  383 : 0D;
  384 : 02;
  385 : FA;
  386 : F5;
  387 : F8;
  388 : 02;
  389 : FA;
  390 : 05;
  391 : 03;
  392 : FD;
  393 : 07;
  394 : 03;
  395 : 04;
  396 : FF;
  397 : FE;
  398 : 03;
  399 : 04;
  400 : 09;
  401 : 09;
  402 : FC;
  403 : FE;
  404 : FD;
  405 : F8;
  406 : FE;
  407 : FC;
  408 : F1;
  409 : F2;
  410 : 01;
  411 : 08;
  412 : 09;
  413 : 10;
  414 : 03;
  415 : 01;
  416 : FB;
  417 : F5;
  418 : F7;
  419 : E9;
  420 : F2;
  421 : EF;
  422 : F8;
  423 : 0F;
  424 : 0A;
  425 : 0F;
  426 : 04;
  427 : FC;
  428 : FE;
  429 : 00;
  430 : FA;
  431 : FC;
  432 : F1;
  433 : F8;
  434 : FE;
  435 : 08;
  436 : 0C;
  437 : 09;
  438 : 06;
  439 : 05;
  440 : FE;
  441 : FC;
  442 : 00;
  443 : 04;
  444 : 02;
  445 : 02;
  446 : FC;
  447 : FF;
  448 : 0C;
  449 : 08;
  450 : 06;
  451 : 03;
  452 : FF;
  453 : F7;
  454 : 00;
  455 : 07;
  456 : 05;
  457 : 00;
  458 : FC;
  459 : FD;
  460 : 03;
  461 : 05;
  462 : 05;
  463 : 03;
  464 : FA;
  465 : F9;
  466 : F6;
  467 : FC;
  468 : 03;
  469 : 06;
  470 : 04;
  471 : FF;
  472 : FB;
  473 : 01;
  474 : FF;
  475 : 00;
  476 : FA;
  477 : FA;
  478 : F2;
  479 : FB;
  480 : FE;
  481 : 01;
  482 : 00;
  483 : 05;
  484 : 0A;
  485 : 06;
  486 : 02;
  487 : FE;
  488 : 01;
  489 : 00;
  490 : 03;
  491 : F9;
  492 : FA;
  493 : 01;
  494 : FC;
  495 : FE;
  496 : 08;
  497 : 0E;
  498 : 06;
  499 : 03;
  500 : 07;
  501 : 0C;
  502 : 05;
  503 : 08;
  504 : FE;
  505 : FC;
  506 : 01;
  507 : EF;
  508 : 09;
  509 : 13;
  510 : FD;
  511 : F3;
  512 : F5;
  513 : F5;
  514 : EE;
  515 : F3;
  516 : F2;
  517 : FB;
  518 : FE;
  519 : F4;
  520 : 0B;
  521 : 18;
  522 : 0C;
  523 : 10;
  524 : 08;
  525 : 01;
  526 : F9;
  527 : F2;
  528 : FA;
  529 : F8;
  530 : FB;
  531 : FE;
  532 : 0F;
  533 : 1A;
  534 : 0D;
  535 : 17;
  536 : 0E;
  537 : 06;
  538 : 0B;
  539 : 07;
  540 : 04;
  541 : 01;
  542 : ED;
  543 : F1;
  544 : ED;
  545 : 01;
  546 : 0C;
  547 : 06;
  548 : 06;
  549 : 12;
  550 : 0F;
  551 : 14;
  552 : 11;
  553 : F5;
  554 : ED;
  555 : EC;
  556 : FA;
  557 : 11;
  558 : FA;
  559 : F9;
  560 : FA;
  561 : 07;
  562 : 0E;
  563 : FD;
  564 : FC;
  565 : EE;
  566 : 02;
  567 : 1D;
  568 : 28;
  569 : 1A;
  570 : FB;
  571 : FA;
  572 : F1;
  573 : F2;
  574 : FA;
  575 : FB;
  576 : F9;
  577 : 04;
  578 : 14;
  579 : 2A;
  580 : 31;
  581 : 2C;
  582 : 0E;
  583 : 0F;
  584 : 18;
  585 : F4;
  586 : F3;
  587 : 0F;
  588 : 06;
  589 : 12;
  590 : 1D;
  591 : 24;
  592 : 16;
  593 : 1D;
  594 : 22;
  595 : 0C;
  596 : 19;
  597 : 17;
  598 : 00;
  599 : 12;
  600 : 08;
  601 : 11;
  602 : 19;
  603 : 18;
  604 : 08;
  605 : 13;
  606 : 15;
  607 : 23;
  608 : 03;
  609 : 02;
  610 : 2E;
  611 : 11;
  612 : 0B;
  613 : 02;
  614 : 02;
  615 : 0C;
  616 : 19;
  617 : 09;
  618 : 12;
  619 : 08;
  620 : FC;
  621 : 00;
  622 : 0B;
  623 : 0A;
  624 : 18;
  625 : 0F;
  626 : FD;
  627 : F9;
  628 : 0D;
  629 : 0E;
  630 : 01;
  631 : FC;
  632 : E8;
  633 : E5;
  634 : F0;
  635 : 1B;
  636 : 15;
  637 : 11;
  638 : 05;
  639 : 12;
  640 : 06;
  641 : 0F;
  642 : 12;
  643 : 02;
  644 : F3;
  645 : E8;
  646 : ED;
  647 : F5;
  648 : 1A;
  649 : 0F;
  650 : 01;
  651 : 02;
  652 : 1E;
  653 : 0F;
  654 : 0A;
  655 : 0B;
  656 : F7;
  657 : E3;
  658 : D8;
  659 : E0;
  660 : E3;
  661 : FE;
  662 : 08;
  663 : FD;
  664 : F7;
  665 : 04;
  666 : 34;
  667 : 1D;
  668 : 01;
  669 : 02;
  670 : F9;
  671 : 17;
  672 : FC;
  673 : F2;
  674 : 02;
  675 : 03;
  676 : FF;
  677 : 03;
  678 : FF;
  679 : 01;
  680 : FB;
  681 : FF;
  682 : FE;
  683 : FB;
  684 : FE;
  685 : F9;
  686 : 00;
  687 : 02;
  688 : 00;
  689 : 01;
  690 : 02;
  691 : 09;
  692 : 0B;
  693 : 01;
  694 : 01;
  695 : FF;
  696 : F5;
  697 : F8;
  698 : FA;
  699 : FA;
  700 : FE;
  701 : 01;
  702 : 05;
  703 : 04;
  704 : 0D;
  705 : 03;
  706 : FF;
  707 : 01;
  708 : 08;
  709 : 04;
  710 : FE;
  711 : F9;
  712 : FB;
  713 : 02;
  714 : FC;
  715 : 05;
  716 : 0A;
  717 : 02;
  718 : FA;
  719 : 04;
  720 : FB;
  721 : 0A;
  722 : 02;
  723 : 01;
  724 : FA;
  725 : FE;
  726 : 0B;
  727 : 01;
  728 : FF;
  729 : FC;
  730 : FE;
  731 : FB;
  732 : F2;
  733 : F0;
  734 : EA;
  735 : F5;
  736 : 02;
  737 : 03;
  738 : 0A;
  739 : 0E;
  740 : FE;
  741 : FC;
  742 : F1;
  743 : EB;
  744 : EF;
  745 : EB;
  746 : EC;
  747 : EF;
  748 : FA;
  749 : 05;
  750 : 07;
  751 : 0D;
  752 : 05;
  753 : 07;
  754 : 01;
  755 : FA;
  756 : F8;
  757 : E6;
  758 : E4;
  759 : EC;
  760 : F6;
  761 : 04;
  762 : 03;
  763 : 09;
  764 : 0E;
  765 : 00;
  766 : FF;
  767 : FF;
  768 : F9;
  769 : FC;
  770 : EF;
  771 : E6;
  772 : EE;
  773 : FB;
  774 : 03;
  775 : 03;
  776 : 06;
  777 : 05;
  778 : F9;
  779 : FA;
  780 : 02;
  781 : 0D;
  782 : 08;
  783 : FE;
  784 : F6;
  785 : FD;
  786 : 02;
  787 : 03;
  788 : FE;
  789 : FA;
  790 : FB;
  791 : F9;
  792 : FD;
  793 : FE;
  794 : 07;
  795 : FD;
  796 : 01;
  797 : FB;
  798 : F7;
  799 : F9;
  800 : FD;
  801 : FB;
  802 : FA;
  803 : F9;
  804 : F5;
  805 : F7;
  806 : 02;
  807 : 00;
  808 : FD;
  809 : 01;
  810 : 01;
  811 : FE;
  812 : F9;
  813 : FC;
  814 : 02;
  815 : 01;
  816 : F3;
  817 : F8;
  818 : FA;
  819 : FF;
  820 : 03;
  821 : F6;
  822 : 05;
  823 : FE;
  824 : 01;
  825 : 06;
  826 : 05;
  827 : 0F;
  828 : 0C;
  829 : 01;
  830 : 01;
  831 : 03;
  832 : 01;
  833 : FE;
  834 : 03;
  835 : 18;
  836 : FC;
  837 : 06;
  838 : 06;
  839 : 10;
  840 : 0B;
  841 : 0B;
  842 : 06;
  843 : FE;
  844 : 02;
  845 : FE;
  846 : 05;
  847 : 00;
  848 : FF;
  849 : 00;
  850 : 08;
  851 : FA;
  852 : FC;
  853 : F4;
  854 : F8;
  855 : 01;
  856 : 06;
  857 : FF;
  858 : FF;
  859 : 04;
  860 : 07;
  861 : 0B;
  862 : 01;
  863 : 08;
  864 : F8;
  865 : F1;
  866 : ED;
  867 : F9;
  868 : FB;
  869 : F7;
  870 : FF;
  871 : 07;
  872 : 03;
  873 : 12;
  874 : 0B;
  875 : 0B;
  876 : 0A;
  877 : 05;
  878 : FC;
  879 : F7;
  880 : F4;
  881 : FC;
  882 : FD;
  883 : F3;
  884 : 06;
  885 : 04;
  886 : 05;
  887 : 06;
  888 : 0A;
  889 : 0E;
  890 : 0B;
  891 : 03;
  892 : F8;
  893 : FC;
  894 : FB;
  895 : 01;
  896 : FC;
  897 : FF;
  898 : 01;
  899 : 07;
  900 : 02;
  901 : 01;
  902 : FA;
  903 : F9;
  904 : 00;
  905 : FC;
  906 : 02;
  907 : 03;
  908 : 0B;
  909 : F9;
  910 : F5;
  911 : F0;
  912 : F9;
  913 : F2;
  914 : FD;
  915 : F1;
  916 : F2;
  917 : 00;
  918 : 08;
  919 : 0A;
  920 : 10;
  921 : 06;
  922 : 00;
  923 : FB;
  924 : EF;
  925 : E4;
  926 : DF;
  927 : E4;
  928 : EB;
  929 : FB;
  930 : 08;
  931 : 07;
  932 : 0A;
  933 : 09;
  934 : 00;
  935 : FF;
  936 : 02;
  937 : FF;
  938 : ED;
  939 : EC;
  940 : EF;
  941 : 01;
  942 : 0A;
  943 : 0F;
  944 : 0B;
  945 : 05;
  946 : 05;
  947 : 00;
  948 : FC;
  949 : 0C;
  950 : 00;
  951 : 00;
  952 : F6;
  953 : FC;
  954 : 01;
  955 : 0D;
  956 : 09;
  957 : 03;
  958 : 03;
  959 : FB;
  960 : FA;
  961 : F6;
  962 : 0B;
  963 : 08;
  964 : 01;
  965 : FD;
  966 : FB;
  967 : FB;
  968 : 01;
  969 : 01;
  970 : FF;
  971 : FA;
  972 : F9;
  973 : F4;
  974 : F4;
  975 : 01;
  976 : 05;
  977 : 05;
  978 : 01;
  979 : FD;
  980 : FD;
  981 : FB;
  982 : FE;
  983 : 01;
  984 : F9;
  985 : F4;
  986 : F2;
  987 : 00;
  988 : 00;
  989 : 00;
  990 : 0F;
  991 : 06;
  992 : 05;
  993 : FE;
  994 : FE;
  995 : FF;
  996 : 05;
  997 : 02;
  998 : F6;
  999 : F6;
  1000 : 01;
  1001 : 00;
  1002 : FD;
  1003 : 11;
  1004 : 10;
  1005 : FF;
  1006 : 00;
  1007 : 0A;
  1008 : 07;
  1009 : 10;
  1010 : 0B;
  1011 : FC;
  1012 : FB;
  1013 : F9;
  1014 : F2;
  1015 : 0B;
  1016 : 0E;
  1017 : 05;
  1018 : FC;
  1019 : FF;
  1020 : F5;
  1021 : F6;
  1022 : F3;
  1023 : FB;
  1024 : 05;
  1025 : FD;
  1026 : FE;
  1027 : 0B;
  1028 : 16;
  1029 : 11;
  1030 : 0D;
  1031 : 08;
  1032 : 04;
  1033 : F1;
  1034 : F3;
  1035 : F5;
  1036 : F3;
  1037 : F7;
  1038 : FB;
  1039 : 06;
  1040 : 1C;
  1041 : 0A;
  1042 : 10;
  1043 : 11;
  1044 : 05;
  1045 : 09;
  1046 : 09;
  1047 : FF;
  1048 : F8;
  1049 : F6;
  1050 : 04;
  1051 : 00;
  1052 : 02;
  1053 : 08;
  1054 : 08;
  1055 : 00;
  1056 : 01;
  1057 : 0A;
  1058 : 0A;
  1059 : 0E;
  1060 : 02;
  1061 : FF;
  1062 : 01;
  1063 : 0C;
  1064 : FF;
  1065 : FC;
  1066 : FD;
  1067 : 0B;
  1068 : F7;
  1069 : 05;
  1070 : FA;
  1071 : F5;
  1072 : F7;
  1073 : 06;
  1074 : 03;
  1075 : 0C;
  1076 : 0D;
  1077 : 09;
  1078 : F7;
  1079 : F5;
  1080 : F5;
  1081 : F3;
  1082 : ED;
  1083 : F3;
  1084 : EF;
  1085 : F4;
  1086 : 03;
  1087 : 02;
  1088 : 12;
  1089 : 06;
  1090 : FF;
  1091 : FB;
  1092 : FD;
  1093 : EF;
  1094 : EC;
  1095 : E5;
  1096 : E3;
  1097 : EB;
  1098 : FE;
  1099 : 0E;
  1100 : 0A;
  1101 : 0B;
  1102 : FF;
  1103 : F7;
  1104 : 09;
  1105 : 05;
  1106 : FF;
  1107 : F9;
  1108 : E8;
  1109 : F0;
  1110 : F9;
  1111 : 11;
  1112 : 0B;
  1113 : 05;
  1114 : 0A;
  1115 : FE;
  1116 : F1;
  1117 : 0C;
  1118 : 12;
  1119 : 05;
  1120 : 06;
  1121 : FA;
  1122 : FE;
  1123 : 04;
  1124 : 0B;
  1125 : 0C;
  1126 : 01;
  1127 : 01;
  1128 : F6;
  1129 : F1;
  1130 : 08;
  1131 : 14;
  1132 : 09;
  1133 : FF;
  1134 : 00;
  1135 : FB;
  1136 : FF;
  1137 : 02;
  1138 : 02;
  1139 : F9;
  1140 : F8;
  1141 : EE;
  1142 : F0;
  1143 : F2;
  1144 : 10;
  1145 : 06;
  1146 : 0B;
  1147 : 06;
  1148 : FC;
  1149 : F9;
  1150 : FA;
  1151 : FC;
  1152 : FA;
  1153 : FB;
  1154 : F2;
  1155 : F1;
  1156 : F8;
  1157 : FF;
  1158 : 00;
  1159 : 19;
  1160 : 0B;
  1161 : 06;
  1162 : FD;
  1163 : 00;
  1164 : 07;
  1165 : 08;
  1166 : 02;
  1167 : FC;
  1168 : F6;
  1169 : FE;
  1170 : FA;
  1171 : FA;
  1172 : 0C;
  1173 : 16;
  1174 : FD;
  1175 : 07;
  1176 : 0F;
  1177 : 13;
  1178 : 10;
  1179 : 07;
  1180 : 01;
  1181 : F4;
  1182 : 03;
  1183 : 01;
  1184 : 03;
  1185 : FD;
  1186 : FC;
  1187 : 03;
  1188 : 02;
  1189 : FA;
  1190 : FF;
  1191 : FD;
  1192 : 02;
  1193 : FC;
  1194 : FF;
  1195 : FD;
  1196 : 01;
  1197 : 00;
  1198 : 04;
  1199 : FD;
  1200 : F9;
  1201 : F8;
  1202 : E4;
  1203 : F7;
  1204 : F5;
  1205 : FD;
  1206 : FB;
  1207 : 02;
  1208 : FE;
  1209 : 03;
  1210 : 00;
  1211 : 05;
  1212 : 09;
  1213 : F5;
  1214 : EC;
  1215 : F4;
  1216 : F8;
  1217 : D7;
  1218 : E7;
  1219 : FF;
  1220 : 07;
  1221 : FE;
  1222 : 00;
  1223 : F9;
  1224 : 08;
  1225 : FC;
  1226 : F9;
  1227 : F7;
  1228 : F5;
  1229 : EC;
  1230 : F6;
  1231 : 0C;
  1232 : 0B;
  1233 : 0C;
  1234 : 03;
  1235 : FB;
  1236 : FC;
  1237 : 05;
  1238 : FD;
  1239 : F4;
  1240 : EB;
  1241 : 06;
  1242 : 1B;
  1243 : 22;
  1244 : 1A;
  1245 : 05;
  1246 : 07;
  1247 : 00;
  1248 : FF;
  1249 : F9;
  1250 : FC;
  1251 : F4;
  1252 : EF;
  1253 : F6;
  1254 : 17;
  1255 : 1B;
  1256 : 1F;
  1257 : 0D;
  1258 : FE;
  1259 : 09;
  1260 : 00;
  1261 : FF;
  1262 : F6;
  1263 : FA;
  1264 : F5;
  1265 : 0C;
  1266 : 0A;
  1267 : 09;
  1268 : 0A;
  1269 : FD;
  1270 : 0A;
  1271 : F2;
  1272 : 02;
  1273 : 02;
  1274 : 02;
  1275 : 00;
  1276 : 06;
  1277 : 07;
  1278 : 15;
  1279 : 0C;
  1280 : FC;
  1281 : FE;
  1282 : 01;
  1283 : FA;
  1284 : EB;
  1285 : 00;
  1286 : FC;
  1287 : 06;
  1288 : 00;
  1289 : 01;
  1290 : 03;
  1291 : 0B;
  1292 : 0C;
  1293 : FB;
  1294 : FD;
  1295 : F4;
  1296 : E8;
  1297 : F4;
  1298 : FE;
  1299 : FF;
  1300 : 01;
  1301 : FD;
  1302 : FE;
  1303 : 04;
  1304 : 0D;
  1305 : 01;
  1306 : 02;
  1307 : F7;
  1308 : EE;
  1309 : E3;
  1310 : 01;
  1311 : FC;
  1312 : 03;
  1313 : FE;
  1314 : 04;
  1315 : 02;
  1316 : 05;
  1317 : 0C;
  1318 : 05;
  1319 : 08;
  1320 : F9;
  1321 : FC;
  1322 : F1;
  1323 : FC;
  1324 : FC;
  1325 : FD;
  1326 : FE;
  1327 : FC;
  1328 : 0D;
  1329 : FD;
  1330 : 11;
  1331 : 06;
  1332 : 0F;
  1333 : 01;
  1334 : FC;
  1335 : F8;
  1336 : F9;
  1337 : FE;
  1338 : FF;
  1339 : FF;
  1340 : FF;
  1341 : 03;
  1342 : 02;
  1343 : 03;
  1344 : 05;
  1345 : 06;
  1346 : 04;
  1347 : FE;
  1348 : FE;
  1349 : FC;
  1350 : 02;
  1351 : FC;
  1352 : 18;
  1353 : 0A;
  1354 : FE;
  1355 : F9;
  1356 : FF;
  1357 : 06;
  1358 : F5;
  1359 : E7;
  1360 : ED;
  1361 : 04;
  1362 : 03;
  1363 : FD;
  1364 : 00;
  1365 : 2E;
  1366 : 17;
  1367 : 13;
  1368 : 0E;
  1369 : 06;
  1370 : F2;
  1371 : EE;
  1372 : F1;
  1373 : E2;
  1374 : DD;
  1375 : ED;
  1376 : F8;
  1377 : FC;
  1378 : 04;
  1379 : 09;
  1380 : 00;
  1381 : 01;
  1382 : 10;
  1383 : FE;
  1384 : FA;
  1385 : F9;
  1386 : FD;
  1387 : FA;
  1388 : F5;
  1389 : FE;
  1390 : 00;
  1391 : 10;
  1392 : 14;
  1393 : 0F;
  1394 : 0A;
  1395 : 04;
  1396 : F6;
  1397 : E8;
  1398 : D4;
  1399 : E2;
  1400 : FF;
  1401 : EE;
  1402 : F8;
  1403 : 01;
  1404 : 08;
  1405 : F9;
  1406 : F3;
  1407 : F1;
  1408 : F3;
  1409 : FA;
  1410 : F2;
  1411 : FC;
  1412 : E9;
  1413 : F7;
  1414 : 0C;
  1415 : F3;
  1416 : E1;
  1417 : 10;
  1418 : EB;
  1419 : E9;
  1420 : FF;
  1421 : FA;
  1422 : F1;
  1423 : F8;
  1424 : FD;
  1425 : 01;
  1426 : 05;
  1427 : 17;
  1428 : 06;
  1429 : 01;
  1430 : 16;
  1431 : E7;
  1432 : CC;
  1433 : FF;
  1434 : 1E;
  1435 : FC;
  1436 : DF;
  1437 : E4;
  1438 : DF;
  1439 : EE;
  1440 : F9;
  1441 : FD;
  1442 : F2;
  1443 : F3;
  1444 : E1;
  1445 : E6;
  1446 : FA;
  1447 : 0E;
  1448 : E8;
  1449 : D5;
  1450 : CD;
  1451 : CE;
  1452 : E5;
  1453 : ED;
  1454 : E9;
  1455 : E8;
  1456 : FF;
  1457 : FA;
  1458 : E0;
  1459 : D1;
  1460 : D4;
  1461 : D7;
  1462 : C7;
  1463 : B4;
  1464 : CE;
  1465 : DB;
  1466 : EB;
  1467 : EB;
  1468 : FE;
  1469 : E5;
  1470 : 10;
  1471 : F4;
  1472 : E8;
  1473 : DD;
  1474 : D7;
  1475 : C7;
  1476 : E7;
  1477 : E2;
  1478 : F4;
  1479 : EF;
  1480 : EF;
  1481 : F8;
  1482 : 0D;
  1483 : 0D;
  1484 : 04;
  1485 : E8;
  1486 : D1;
  1487 : B0;
  1488 : D8;
  1489 : EB;
  1490 : 04;
  1491 : 1C;
  1492 : 14;
  1493 : 03;
  1494 : F9;
  1495 : 0E;
  1496 : 16;
  1497 : FE;
  1498 : C2;
  1499 : A9;
  1500 : AD;
  1501 : D8;
  1502 : 06;
  1503 : 19;
  1504 : 14;
  1505 : 1A;
  1506 : 0F;
  1507 : 0A;
  1508 : 36;
  1509 : 18;
  1510 : F7;
  1511 : F8;
  1512 : ED;
  1513 : DD;
  1514 : FB;
  1515 : 15;
  1516 : 08;
  1517 : 0D;
  1518 : 0D;
  1519 : 27;
  1520 : 2D;
  1521 : 06;
  1522 : 06;
  1523 : 08;
  1524 : 06;
  1525 : 09;
  1526 : 09;
  1527 : 0B;
  1528 : FD;
  1529 : FD;
  1530 : 09;
  1531 : 06;
  1532 : 06;
  1533 : 07;
  1534 : 01;
  1535 : 05;
  1536 : 06;
  1537 : 0B;
  1538 : FF;
  1539 : 03;
  1540 : F6;
  1541 : FC;
  1542 : FB;
  1543 : FA;
  1544 : FB;
  1545 : FF;
  1546 : 00;
  1547 : 07;
  1548 : 07;
  1549 : 05;
  1550 : 01;
  1551 : FF;
  1552 : F6;
  1553 : FC;
  1554 : F2;
  1555 : 00;
  1556 : FC;
  1557 : F7;
  1558 : FF;
  1559 : FC;
  1560 : 04;
  1561 : 07;
  1562 : 00;
  1563 : 06;
  1564 : 00;
  1565 : FA;
  1566 : FA;
  1567 : 00;
  1568 : 01;
  1569 : FA;
  1570 : FF;
  1571 : FA;
  1572 : 00;
  1573 : 07;
  1574 : 07;
  1575 : 03;
  1576 : FE;
  1577 : F9;
  1578 : 05;
  1579 : 0B;
  1580 : 0B;
  1581 : FE;
  1582 : FD;
  1583 : F6;
  1584 : FC;
  1585 : FB;
  1586 : 05;
  1587 : FE;
  1588 : FB;
  1589 : 01;
  1590 : 00;
  1591 : 0C;
  1592 : 13;
  1593 : 0F;
  1594 : 01;
  1595 : 07;
  1596 : 02;
  1597 : FF;
  1598 : F9;
  1599 : 06;
  1600 : 03;
  1601 : FF;
  1602 : 02;
  1603 : 06;
  1604 : 0B;
  1605 : 14;
  1606 : 10;
  1607 : 0C;
  1608 : 16;
  1609 : 0B;
  1610 : F8;
  1611 : 03;
  1612 : 09;
  1613 : 02;
  1614 : FB;
  1615 : 0E;
  1616 : 07;
  1617 : 15;
  1618 : 13;
  1619 : 10;
  1620 : 20;
  1621 : 0B;
  1622 : FD;
  1623 : F7;
  1624 : FB;
  1625 : 06;
  1626 : F7;
  1627 : F0;
  1628 : F4;
  1629 : F8;
  1630 : 07;
  1631 : 11;
  1632 : 0E;
  1633 : 02;
  1634 : ED;
  1635 : F0;
  1636 : F1;
  1637 : FC;
  1638 : 06;
  1639 : F4;
  1640 : F2;
  1641 : E9;
  1642 : EF;
  1643 : FE;
  1644 : 01;
  1645 : F3;
  1646 : E8;
  1647 : EA;
  1648 : E9;
  1649 : F1;
  1650 : 00;
  1651 : 05;
  1652 : 0A;
  1653 : FC;
  1654 : FD;
  1655 : 01;
  1656 : F4;
  1657 : EF;
  1658 : ED;
  1659 : EC;
  1660 : ED;
  1661 : FB;
  1662 : F7;
  1663 : 00;
  1664 : 06;
  1665 : 04;
  1666 : 08;
  1667 : 0A;
  1668 : FF;
  1669 : F3;
  1670 : F4;
  1671 : F5;
  1672 : F9;
  1673 : FF;
  1674 : 01;
  1675 : 01;
  1676 : 04;
  1677 : 05;
  1678 : 0B;
  1679 : 0E;
  1680 : 12;
  1681 : 08;
  1682 : 03;
  1683 : 04;
  1684 : 01;
  1685 : FC;
  1686 : FE;
  1687 : 08;
  1688 : 00;
  1689 : 04;
  1690 : 08;
  1691 : 03;
  1692 : 09;
  1693 : 04;
  1694 : 0A;
  1695 : 06;
  1696 : 09;
  1697 : FF;
  1698 : 03;
  1699 : 09;
  1700 : 05;
  1701 : 08;
  1702 : 09;
  1703 : 04;
  1704 : 04;
  1705 : 05;
  1706 : 05;
  1707 : 02;
  1708 : FB;
  1709 : FF;
  1710 : F7;
  1711 : EF;
  1712 : FB;
  1713 : 04;
  1714 : 02;
  1715 : 05;
  1716 : 04;
  1717 : 04;
  1718 : 06;
  1719 : FF;
  1720 : 03;
  1721 : FE;
  1722 : 04;
  1723 : FD;
  1724 : FD;
  1725 : FD;
  1726 : F8;
  1727 : FE;
  1728 : FC;
  1729 : 06;
  1730 : 06;
  1731 : 00;
  1732 : 02;
  1733 : FE;
  1734 : 02;
  1735 : FD;
  1736 : FF;
  1737 : 03;
  1738 : FA;
  1739 : FC;
  1740 : F8;
  1741 : FB;
  1742 : 08;
  1743 : 0C;
  1744 : 03;
  1745 : 03;
  1746 : 02;
  1747 : 03;
  1748 : 0A;
  1749 : 0D;
  1750 : FF;
  1751 : 00;
  1752 : F8;
  1753 : FC;
  1754 : 03;
  1755 : 0A;
  1756 : 03;
  1757 : FC;
  1758 : FF;
  1759 : FA;
  1760 : 05;
  1761 : 15;
  1762 : 18;
  1763 : 0C;
  1764 : 05;
  1765 : 02;
  1766 : FC;
  1767 : 00;
  1768 : 08;
  1769 : 07;
  1770 : 01;
  1771 : 03;
  1772 : 04;
  1773 : 0B;
  1774 : 17;
  1775 : 18;
  1776 : 10;
  1777 : 10;
  1778 : 08;
  1779 : FC;
  1780 : 02;
  1781 : 09;
  1782 : 08;
  1783 : FA;
  1784 : 07;
  1785 : 0D;
  1786 : 0F;
  1787 : 16;
  1788 : 10;
  1789 : 10;
  1790 : 0D;
  1791 : FA;
  1792 : FC;
  1793 : FB;
  1794 : 03;
  1795 : FB;
  1796 : F1;
  1797 : F4;
  1798 : 00;
  1799 : 05;
  1800 : 11;
  1801 : 0E;
  1802 : 02;
  1803 : F6;
  1804 : F1;
  1805 : F5;
  1806 : FC;
  1807 : 03;
  1808 : FA;
  1809 : F2;
  1810 : ED;
  1811 : EF;
  1812 : 04;
  1813 : 05;
  1814 : FB;
  1815 : ED;
  1816 : E6;
  1817 : F0;
  1818 : F0;
  1819 : 02;
  1820 : 05;
  1821 : 05;
  1822 : FA;
  1823 : F7;
  1824 : FA;
  1825 : FD;
  1826 : F2;
  1827 : F2;
  1828 : EE;
  1829 : F4;
  1830 : F3;
  1831 : FA;
  1832 : 08;
  1833 : 05;
  1834 : 09;
  1835 : 04;
  1836 : 0C;
  1837 : 00;
  1838 : F6;
  1839 : F6;
  1840 : F7;
  1841 : FC;
  1842 : 02;
  1843 : 08;
  1844 : 01;
  1845 : 02;
  1846 : 09;
  1847 : 0A;
  1848 : 0C;
  1849 : 10;
  1850 : 08;
  1851 : FF;
  1852 : 06;
  1853 : 08;
  1854 : 08;
  1855 : 07;
  1856 : 0A;
  1857 : 04;
  1858 : 08;
  1859 : 0B;
  1860 : 01;
  1861 : FA;
  1862 : F9;
  1863 : 07;
  1864 : 07;
  1865 : F8;
  1866 : E9;
  1867 : FA;
  1868 : 0C;
  1869 : F9;
  1870 : FB;
  1871 : FE;
  1872 : 24;
  1873 : 0D;
  1874 : 0D;
  1875 : 05;
  1876 : 07;
  1877 : F5;
  1878 : F9;
  1879 : F6;
  1880 : F4;
  1881 : EB;
  1882 : ED;
  1883 : FC;
  1884 : F6;
  1885 : FE;
  1886 : 04;
  1887 : FF;
  1888 : FA;
  1889 : 04;
  1890 : FD;
  1891 : FB;
  1892 : FF;
  1893 : 12;
  1894 : 02;
  1895 : 09;
  1896 : F6;
  1897 : F2;
  1898 : 17;
  1899 : 0C;
  1900 : 09;
  1901 : 04;
  1902 : FE;
  1903 : FA;
  1904 : F9;
  1905 : F6;
  1906 : 01;
  1907 : FF;
  1908 : F7;
  1909 : 00;
  1910 : F8;
  1911 : 08;
  1912 : FB;
  1913 : F2;
  1914 : F9;
  1915 : FD;
  1916 : 0D;
  1917 : 16;
  1918 : 0C;
  1919 : FB;
  1920 : FF;
  1921 : 07;
  1922 : F7;
  1923 : ED;
  1924 : 10;
  1925 : 03;
  1926 : FD;
  1927 : F3;
  1928 : 0C;
  1929 : 11;
  1930 : 1D;
  1931 : 05;
  1932 : 02;
  1933 : 10;
  1934 : 0C;
  1935 : EE;
  1936 : 00;
  1937 : 15;
  1938 : 07;
  1939 : F3;
  1940 : 02;
  1941 : 1F;
  1942 : 26;
  1943 : 06;
  1944 : E8;
  1945 : 02;
  1946 : 04;
  1947 : 00;
  1948 : EF;
  1949 : EF;
  1950 : 01;
  1951 : EC;
  1952 : EA;
  1953 : 0C;
  1954 : 18;
  1955 : 04;
  1956 : F0;
  1957 : F6;
  1958 : 00;
  1959 : 13;
  1960 : 0C;
  1961 : FC;
  1962 : EB;
  1963 : EB;
  1964 : E1;
  1965 : DA;
  1966 : EA;
  1967 : EB;
  1968 : F3;
  1969 : F1;
  1970 : ED;
  1971 : EB;
  1972 : F9;
  1973 : 08;
  1974 : FD;
  1975 : 01;
  1976 : E7;
  1977 : 04;
  1978 : F7;
  1979 : EE;
  1980 : FD;
  1981 : 01;
  1982 : DF;
  1983 : E1;
  1984 : D6;
  1985 : DB;
  1986 : F3;
  1987 : 07;
  1988 : F8;
  1989 : 05;
  1990 : 05;
  1991 : 0F;
  1992 : 11;
  1993 : 14;
  1994 : EA;
  1995 : D9;
  1996 : C5;
  1997 : CD;
  1998 : E5;
  1999 : F5;
  2000 : 0A;
  2001 : 13;
  2002 : 0B;
  2003 : 0A;
  2004 : 26;
  2005 : 23;
  2006 : 02;
  2007 : F7;
  2008 : DC;
  2009 : D2;
  2010 : E5;
  2011 : D7;
  2012 : F0;
  2013 : 11;
  2014 : 1A;
  2015 : 07;
  2016 : 1C;
  2017 : 21;
  2018 : 47;
  2019 : 2E;
  2020 : 08;
  2021 : 0B;
  2022 : FB;
  2023 : FF;
  2024 : F5;
  2025 : F3;
  2026 : 15;
  2027 : 00;
  2028 : 08;
  2029 : 06;
  2030 : 03;
  2031 : 04;
  2032 : 06;
  2033 : 08;
  2034 : 03;
  2035 : F9;
  2036 : FD;
  2037 : 02;
  2038 : 04;
  2039 : FF;
  2040 : 07;
  2041 : 07;
  2042 : 08;
  2043 : 08;
  2044 : 09;
  2045 : 04;
  2046 : F7;
  2047 : FF;
  2048 : F6;
  2049 : F1;
  2050 : F1;
  2051 : F3;
  2052 : FF;
  2053 : 00;
  2054 : 07;
  2055 : 06;
  2056 : 01;
  2057 : 02;
  2058 : 0B;
  2059 : 03;
  2060 : FE;
  2061 : FC;
  2062 : FF;
  2063 : FB;
  2064 : F8;
  2065 : FE;
  2066 : F9;
  2067 : 05;
  2068 : 06;
  2069 : 04;
  2070 : 07;
  2071 : 0D;
  2072 : 02;
  2073 : 03;
  2074 : F6;
  2075 : FB;
  2076 : FD;
  2077 : F5;
  2078 : FC;
  2079 : FB;
  2080 : 07;
  2081 : 01;
  2082 : FF;
  2083 : FB;
  2084 : FA;
  2085 : F3;
  2086 : 01;
  2087 : FE;
  2088 : FA;
  2089 : 01;
  2090 : FA;
  2091 : F5;
  2092 : F8;
  2093 : 05;
  2094 : 07;
  2095 : 08;
  2096 : FD;
  2097 : ED;
  2098 : EC;
  2099 : 03;
  2100 : 12;
  2101 : 06;
  2102 : 0F;
  2103 : 0A;
  2104 : FC;
  2105 : 01;
  2106 : 03;
  2107 : 01;
  2108 : 03;
  2109 : 0A;
  2110 : FF;
  2111 : F4;
  2112 : 04;
  2113 : 13;
  2114 : 0B;
  2115 : 17;
  2116 : 09;
  2117 : FE;
  2118 : FD;
  2119 : 04;
  2120 : FD;
  2121 : FB;
  2122 : 02;
  2123 : 00;
  2124 : F6;
  2125 : 0A;
  2126 : 00;
  2127 : 05;
  2128 : 0A;
  2129 : 00;
  2130 : F9;
  2131 : FB;
  2132 : 03;
  2133 : FE;
  2134 : EF;
  2135 : ED;
  2136 : E8;
  2137 : F7;
  2138 : FE;
  2139 : F9;
  2140 : F9;
  2141 : EE;
  2142 : F0;
  2143 : F2;
  2144 : FD;
  2145 : 06;
  2146 : 05;
  2147 : F4;
  2148 : F1;
  2149 : E8;
  2150 : F1;
  2151 : FB;
  2152 : F5;
  2153 : EE;
  2154 : E5;
  2155 : F0;
  2156 : EE;
  2157 : FE;
  2158 : 06;
  2159 : 05;
  2160 : FD;
  2161 : EF;
  2162 : F5;
  2163 : F8;
  2164 : F5;
  2165 : F6;
  2166 : FC;
  2167 : F5;
  2168 : FC;
  2169 : F7;
  2170 : 01;
  2171 : 04;
  2172 : 09;
  2173 : F4;
  2174 : 05;
  2175 : 07;
  2176 : F8;
  2177 : 02;
  2178 : 0A;
  2179 : 06;
  2180 : 06;
  2181 : 0A;
  2182 : 00;
  2183 : 00;
  2184 : 04;
  2185 : 03;
  2186 : 05;
  2187 : 15;
  2188 : 0A;
  2189 : 07;
  2190 : 0D;
  2191 : 15;
  2192 : 0D;
  2193 : 06;
  2194 : 12;
  2195 : 00;
  2196 : 04;
  2197 : 04;
  2198 : 04;
  2199 : 05;
  2200 : 06;
  2201 : 09;
  2202 : 0C;
  2203 : FD;
  2204 : F9;
  2205 : 01;
  2206 : 05;
  2207 : 06;
  2208 : 02;
  2209 : 02;
  2210 : 07;
  2211 : 0B;
  2212 : 0D;
  2213 : 02;
  2214 : 00;
  2215 : F1;
  2216 : 01;
  2217 : E7;
  2218 : EE;
  2219 : F7;
  2220 : FF;
  2221 : FE;
  2222 : FD;
  2223 : 04;
  2224 : 05;
  2225 : 06;
  2226 : 05;
  2227 : FC;
  2228 : FF;
  2229 : F8;
  2230 : FD;
  2231 : F4;
  2232 : F2;
  2233 : F6;
  2234 : F8;
  2235 : FF;
  2236 : 05;
  2237 : 06;
  2238 : 06;
  2239 : 02;
  2240 : FF;
  2241 : 03;
  2242 : FF;
  2243 : FA;
  2244 : F8;
  2245 : FA;
  2246 : F8;
  2247 : F8;
  2248 : FD;
  2249 : 07;
  2250 : 02;
  2251 : FF;
  2252 : F4;
  2253 : 01;
  2254 : 06;
  2255 : 06;
  2256 : FF;
  2257 : FF;
  2258 : FB;
  2259 : EF;
  2260 : F8;
  2261 : 04;
  2262 : 08;
  2263 : 01;
  2264 : 05;
  2265 : F8;
  2266 : FB;
  2267 : 08;
  2268 : 0F;
  2269 : 11;
  2270 : 0E;
  2271 : 02;
  2272 : FF;
  2273 : F9;
  2274 : FD;
  2275 : 0D;
  2276 : 06;
  2277 : 07;
  2278 : 05;
  2279 : 00;
  2280 : 09;
  2281 : 10;
  2282 : 1C;
  2283 : 11;
  2284 : 0F;
  2285 : 0B;
  2286 : FD;
  2287 : FD;
  2288 : 03;
  2289 : F8;
  2290 : FB;
  2291 : 07;
  2292 : 11;
  2293 : 0F;
  2294 : 11;
  2295 : 18;
  2296 : 0E;
  2297 : 0E;
  2298 : F4;
  2299 : F2;
  2300 : EE;
  2301 : FF;
  2302 : EA;
  2303 : E5;
  2304 : EC;
  2305 : 04;
  2306 : 04;
  2307 : 07;
  2308 : 09;
  2309 : FB;
  2310 : F5;
  2311 : ED;
  2312 : EC;
  2313 : FA;
  2314 : FD;
  2315 : F9;
  2316 : EA;
  2317 : E7;
  2318 : F4;
  2319 : F5;
  2320 : FC;
  2321 : FA;
  2322 : E6;
  2323 : E0;
  2324 : E5;
  2325 : EA;
  2326 : FA;
  2327 : 08;
  2328 : 00;
  2329 : FD;
  2330 : FB;
  2331 : F4;
  2332 : F1;
  2333 : F1;
  2334 : ED;
  2335 : F4;
  2336 : F1;
  2337 : EB;
  2338 : F0;
  2339 : FF;
  2340 : 06;
  2341 : 0A;
  2342 : 0A;
  2343 : 03;
  2344 : F9;
  2345 : F5;
  2346 : F8;
  2347 : F5;
  2348 : FD;
  2349 : 08;
  2350 : 04;
  2351 : FC;
  2352 : 01;
  2353 : 03;
  2354 : 0F;
  2355 : 0F;
  2356 : 12;
  2357 : 0D;
  2358 : FB;
  2359 : 04;
  2360 : 01;
  2361 : F8;
  2362 : 02;
  2363 : 00;
  2364 : 00;
  2365 : FE;
  2366 : FB;
  2367 : FF;
  2368 : 00;
  2369 : 00;
  2370 : 0B;
  2371 : 0E;
  2372 : FA;
  2373 : F0;
  2374 : FA;
  2375 : 0E;
  2376 : 00;
  2377 : FE;
  2378 : FE;
  2379 : 0C;
  2380 : 0B;
  2381 : 07;
  2382 : 04;
  2383 : 05;
  2384 : F0;
  2385 : FA;
  2386 : EF;
  2387 : EF;
  2388 : F6;
  2389 : FB;
  2390 : FF;
  2391 : FA;
  2392 : 04;
  2393 : 00;
  2394 : FD;
  2395 : FD;
  2396 : FF;
  2397 : 00;
  2398 : F6;
  2399 : F6;
  2400 : F8;
  2401 : F1;
  2402 : F6;
  2403 : F8;
  2404 : F7;
  2405 : 0D;
  2406 : 0A;
  2407 : 05;
  2408 : 03;
  2409 : 00;
  2410 : 04;
  2411 : FF;
  2412 : FC;
  2413 : FF;
  2414 : F8;
  2415 : F4;
  2416 : FA;
  2417 : FB;
  2418 : 04;
  2419 : 05;
  2420 : F6;
  2421 : FA;
  2422 : FF;
  2423 : 04;
  2424 : 12;
  2425 : 05;
  2426 : FF;
  2427 : F8;
  2428 : F8;
  2429 : F1;
  2430 : F1;
  2431 : 10;
  2432 : 03;
  2433 : 02;
  2434 : FA;
  2435 : FB;
  2436 : 05;
  2437 : 16;
  2438 : 0F;
  2439 : 0A;
  2440 : 06;
  2441 : 02;
  2442 : F4;
  2443 : EE;
  2444 : 1A;
  2445 : 07;
  2446 : 04;
  2447 : 06;
  2448 : FF;
  2449 : 08;
  2450 : 0E;
  2451 : 1C;
  2452 : 17;
  2453 : 12;
  2454 : 0A;
  2455 : F6;
  2456 : F7;
  2457 : FC;
  2458 : F3;
  2459 : F4;
  2460 : 09;
  2461 : 0E;
  2462 : 07;
  2463 : 0F;
  2464 : 18;
  2465 : 0B;
  2466 : FE;
  2467 : F4;
  2468 : F9;
  2469 : EA;
  2470 : F3;
  2471 : E9;
  2472 : E4;
  2473 : EE;
  2474 : F9;
  2475 : 08;
  2476 : 09;
  2477 : FE;
  2478 : F6;
  2479 : E8;
  2480 : EE;
  2481 : EE;
  2482 : ED;
  2483 : E8;
  2484 : FA;
  2485 : E9;
  2486 : E9;
  2487 : F4;
  2488 : FC;
  2489 : F6;
  2490 : ED;
  2491 : E0;
  2492 : E6;
  2493 : E5;
  2494 : ED;
  2495 : F1;
  2496 : FE;
  2497 : 04;
  2498 : FE;
  2499 : FA;
  2500 : EF;
  2501 : F4;
  2502 : F0;
  2503 : F0;
  2504 : F3;
  2505 : EF;
  2506 : F2;
  2507 : ED;
  2508 : FC;
  2509 : FC;
  2510 : 12;
  2511 : 0C;
  2512 : 05;
  2513 : FB;
  2514 : F0;
  2515 : F5;
  2516 : FB;
  2517 : 0A;
  2518 : 04;
  2519 : FF;
  2520 : F5;
  2521 : FB;
  2522 : 03;
  2523 : 17;
  2524 : FB;
  2525 : 1D;
  2526 : 00;
  2527 : FD;
  2528 : 0E;
  2529 : 11;
  2530 : 09;
  2531 : 0A;
  2532 : 0C;
  2533 : FA;
  2534 : F9;
  2535 : 0A;
  2536 : 05;
  2537 : 0A;
  2538 : 08;
  2539 : 06;
  2540 : 07;
  2541 : 02;
  2542 : 01;
  2543 : 0C;
  2544 : 0A;
  2545 : 05;
  2546 : 0B;
  2547 : 08;
  2548 : 06;
  2549 : 09;
  2550 : 08;
  2551 : 08;
  2552 : 0E;
  2553 : 07;
  2554 : 0B;
  2555 : 03;
  2556 : 14;
  2557 : 0C;
  2558 : 09;
  2559 : 05;
  2560 : 08;
  2561 : 09;
  2562 : 09;
  2563 : 04;
  2564 : 0A;
  2565 : 0A;
  2566 : 09;
  2567 : 15;
  2568 : 12;
  2569 : 14;
  2570 : 16;
  2571 : 18;
  2572 : 06;
  2573 : 0F;
  2574 : 07;
  2575 : 04;
  2576 : 04;
  2577 : 00;
  2578 : FF;
  2579 : 05;
  2580 : 0B;
  2581 : 1E;
  2582 : 09;
  2583 : 1B;
  2584 : 0C;
  2585 : 10;
  2586 : 0A;
  2587 : 05;
  2588 : 07;
  2589 : 07;
  2590 : F7;
  2591 : 04;
  2592 : 07;
  2593 : 05;
  2594 : 04;
  2595 : 09;
  2596 : 0C;
  2597 : 10;
  2598 : 14;
  2599 : 0A;
  2600 : 0C;
  2601 : 01;
  2602 : 0A;
  2603 : FF;
  2604 : 08;
  2605 : 13;
  2606 : F6;
  2607 : F6;
  2608 : 0C;
  2609 : 0D;
  2610 : FC;
  2611 : 06;
  2612 : 09;
  2613 : 07;
  2614 : 06;
  2615 : 07;
  2616 : 0D;
  2617 : 0E;
  2618 : 17;
  2619 : EF;
  2620 : E0;
  2621 : FC;
  2622 : FC;
  2623 : 04;
  2624 : 0A;
  2625 : 04;
  2626 : 0B;
  2627 : FD;
  2628 : 00;
  2629 : 19;
  2630 : 0C;
  2631 : 00;
  2632 : F3;
  2633 : F7;
  2634 : EC;
  2635 : 03;
  2636 : 12;
  2637 : 0E;
  2638 : 08;
  2639 : 08;
  2640 : FD;
  2641 : FD;
  2642 : 04;
  2643 : 14;
  2644 : FC;
  2645 : 09;
  2646 : EB;
  2647 : F7;
  2648 : 05;
  2649 : 0E;
  2650 : 0E;
  2651 : 06;
  2652 : 04;
  2653 : 05;
  2654 : FA;
  2655 : 02;
  2656 : 0E;
  2657 : 0D;
  2658 : 0D;
  2659 : 01;
  2660 : FE;
  2661 : 06;
  2662 : 0F;
  2663 : 0A;
  2664 : 07;
  2665 : 09;
  2666 : 0C;
  2667 : 05;
  2668 : 0A;
  2669 : 15;
  2670 : 13;
  2671 : 16;
  2672 : 07;
  2673 : 0A;
  2674 : 0B;
  2675 : 0A;
  2676 : 08;
  2677 : 0B;
  2678 : 09;
  2679 : 04;
  2680 : 0E;
  2681 : 17;
  2682 : 12;
  2683 : 1B;
  2684 : 15;
  2685 : 11;
  2686 : 0C;
  2687 : 0A;
  2688 : 01;
  2689 : 06;
  2690 : 07;
  2691 : 05;
  2692 : 09;
  2693 : 0C;
  2694 : 16;
  2695 : 0B;
  2696 : 12;
  2697 : 0F;
  2698 : 08;
  2699 : 0F;
  2700 : 08;
  2701 : 09;
  2702 : 0B;
  2703 : 05;
  2704 : 01;
  2705 : 03;
  2706 : FF;
  2707 : FF;
  2708 : FE;
  2709 : FD;
  2710 : FE;
  2711 : 00;
  2712 : FC;
  2713 : 02;
  2714 : FD;
  2715 : 03;
  2716 : FD;
  2717 : FD;
  2718 : FF;
  2719 : 00;
  2720 : 00;
  2721 : 00;
  2722 : FE;
  2723 : 02;
  2724 : FF;
  2725 : FF;
  2726 : FE;
  2727 : 02;
  2728 : 01;
  2729 : FE;
  2730 : FF;
  2731 : FF;
  2732 : 02;
  2733 : FE;
  2734 : FD;
  2735 : FE;
  2736 : 01;
  2737 : 01;
  2738 : 03;
  2739 : FF;
  2740 : FC;
  2741 : 02;
  2742 : 04;
  2743 : 01;
  2744 : 01;
  2745 : 00;
  2746 : FF;
  2747 : FE;
  2748 : 03;
  2749 : 00;
  2750 : 00;
  2751 : FD;
  2752 : FC;
  2753 : FC;
  2754 : FC;
  2755 : 03;
  2756 : 00;
  2757 : 01;
  2758 : FD;
  2759 : FD;
  2760 : 01;
  2761 : 00;
  2762 : FE;
  2763 : FD;
  2764 : FF;
  2765 : 00;
  2766 : FC;
  2767 : 00;
  2768 : FC;
  2769 : FD;
  2770 : 01;
  2771 : 03;
  2772 : 01;
  2773 : FE;
  2774 : 03;
  2775 : 04;
  2776 : 02;
  2777 : 00;
  2778 : FC;
  2779 : 02;
  2780 : FF;
  2781 : 02;
  2782 : 00;
  2783 : FE;
  2784 : 03;
  2785 : 03;
  2786 : 01;
  2787 : 02;
  2788 : 01;
  2789 : 02;
  2790 : 01;
  2791 : 02;
  2792 : FF;
  2793 : 01;
  2794 : FE;
  2795 : 00;
  2796 : FD;
  2797 : 03;
  2798 : 01;
  2799 : 00;
  2800 : 01;
  2801 : 00;
  2802 : 02;
  2803 : 01;
  2804 : 00;
  2805 : FE;
  2806 : FF;
  2807 : FD;
  2808 : 02;
  2809 : FF;
  2810 : FD;
  2811 : FF;
  2812 : FF;
  2813 : FF;
  2814 : 03;
  2815 : FE;
  2816 : FF;
  2817 : FF;
  2818 : 02;
  2819 : FD;
  2820 : FD;
  2821 : 01;
  2822 : FE;
  2823 : FE;
  2824 : 02;
  2825 : 00;
  2826 : 02;
  2827 : FD;
  2828 : 01;
  2829 : 00;
  2830 : FF;
  2831 : 01;
  2832 : FF;
  2833 : 02;
  2834 : 03;
  2835 : FD;
  2836 : 03;
  2837 : 01;
  2838 : 00;
  2839 : 02;
  2840 : 03;
  2841 : FE;
  2842 : FF;
  2843 : 03;
  2844 : 01;
  2845 : 00;
  2846 : FE;
  2847 : FF;
  2848 : 00;
  2849 : 03;
  2850 : FE;
  2851 : FF;
  2852 : FF;
  2853 : 01;
  2854 : 01;
  2855 : 02;
  2856 : FD;
  2857 : 02;
  2858 : 03;
  2859 : 02;
  2860 : 00;
  2861 : FF;
  2862 : FE;
  2863 : FF;
  2864 : FE;
  2865 : FF;
  2866 : 02;
  2867 : 03;
  2868 : 00;
  2869 : 02;
  2870 : 01;
  2871 : 03;
  2872 : FD;
  2873 : FD;
  2874 : 03;
  2875 : FD;
  2876 : 02;
  2877 : 01;
  2878 : FF;
  2879 : FF;
  2880 : FD;
  2881 : FE;
  2882 : FE;
  2883 : 02;
  2884 : 00;
  2885 : 02;
  2886 : FC;
  2887 : 02;
  2888 : 00;
  2889 : 00;
  2890 : FC;
  2891 : FC;
  2892 : FF;
  2893 : FD;
  2894 : FF;
  2895 : 01;
  2896 : 02;
  2897 : FC;
  2898 : 00;
  2899 : FF;
  2900 : FD;
  2901 : FE;
  2902 : 00;
  2903 : 02;
  2904 : 00;
  2905 : 00;
  2906 : FD;
  2907 : 00;
  2908 : FE;
  2909 : 00;
  2910 : FF;
  2911 : FE;
  2912 : 02;
  2913 : 00;
  2914 : FF;
  2915 : FE;
  2916 : FD;
  2917 : FE;
  2918 : FD;
  2919 : FC;
  2920 : FE;
  2921 : FF;
  2922 : 02;
  2923 : 01;
  2924 : FE;
  2925 : FF;
  2926 : 00;
  2927 : 00;
  2928 : FE;
  2929 : FC;
  2930 : 00;
  2931 : 00;
  2932 : FE;
  2933 : 02;
  2934 : FC;
  2935 : FE;
  2936 : 00;
  2937 : FC;
  2938 : 02;
  2939 : 02;
  2940 : FF;
  2941 : 03;
  2942 : FF;
  2943 : FF;
  2944 : FD;
  2945 : FF;
  2946 : FC;
  2947 : 03;
  2948 : 02;
  2949 : FD;
  2950 : FF;
  2951 : FC;
  2952 : 02;
  2953 : 00;
  2954 : 02;
  2955 : FF;
  2956 : FE;
  2957 : 02;
  2958 : FE;
  2959 : FD;
  2960 : 03;
  2961 : FE;
  2962 : 02;
  2963 : FF;
  2964 : FD;
  2965 : 03;
  2966 : 02;
  2967 : FE;
  2968 : FD;
  2969 : 00;
  2970 : FD;
  2971 : 01;
  2972 : FE;
  2973 : 02;
  2974 : 00;
  2975 : 02;
  2976 : 01;
  2977 : 02;
  2978 : FF;
  2979 : FD;
  2980 : 00;
  2981 : FE;
  2982 : FC;
  2983 : FF;
  2984 : FE;
  2985 : 00;
  2986 : 01;
  2987 : FE;
  2988 : 01;
  2989 : 03;
  2990 : FD;
  2991 : FD;
  2992 : 02;
  2993 : FE;
  2994 : FF;
  2995 : 00;
  2996 : 02;
  2997 : 01;
  2998 : FE;
  2999 : FD;
  3000 : 01;
  3001 : 00;
  3002 : 01;
  3003 : FC;
  3004 : 00;
  3005 : FC;
  3006 : FC;
  3007 : 03;
  3008 : 00;
  3009 : FF;
  3010 : FF;
  3011 : FF;
  3012 : 01;
  3013 : 01;
  3014 : FD;
  3015 : 02;
  3016 : 01;
  3017 : FE;
  3018 : FE;
  3019 : FE;
  3020 : 00;
  3021 : FE;
  3022 : FF;
  3023 : 00;
  3024 : 00;
  3025 : FD;
  3026 : FC;
  3027 : FF;
  3028 : 00;
  3029 : FF;
  3030 : FC;
  3031 : 01;
  3032 : 02;
  3033 : 01;
  3034 : 02;
  3035 : FD;
  3036 : FD;
  3037 : FC;
  3038 : FE;
  3039 : FC;
  3040 : 01;
  3041 : 00;
  3042 : FE;
  3043 : 01;
  3044 : 01;
  3045 : 00;
  3046 : FD;
  3047 : FC;
  3048 : 00;
  3049 : FF;
  3050 : FD;
  3051 : FE;
  3052 : FF;
  3053 : FD;
  3054 : FC;
  3055 : FC;
  3056 : FE;
  3057 : FD;
  3058 : 01;
  3059 : 01;
  3060 : FE;
  3061 : FC;
  3062 : FF;
  3063 : 03;
  3064 : FF;
  3065 : FE;
  3066 : FD;
  3067 : 00;
  3068 : FF;
  3069 : 02;
  3070 : 00;
  3071 : FC;
  3072 : FC;
  3073 : 01;
  3074 : FD;
  3075 : 01;
  3076 : FE;
  3077 : FE;
  3078 : 02;
  3079 : FE;
  3080 : 02;
  3081 : 01;
  3082 : FD;
  3083 : 00;
  3084 : FD;
  3085 : FD;
  3086 : 02;
  3087 : FE;
  3088 : 00;
  3089 : FE;
  3090 : FD;
  3091 : FE;
  3092 : FC;
  3093 : 01;
  3094 : 01;
  3095 : 03;
  3096 : 02;
  3097 : 01;
  3098 : FD;
  3099 : 02;
  3100 : FE;
  3101 : FC;
  3102 : 02;
  3103 : 00;
  3104 : FC;
  3105 : FE;
  3106 : 00;
  3107 : 01;
  3108 : 01;
  3109 : FD;
  3110 : FD;
  3111 : 02;
  3112 : 03;
  3113 : FC;
  3114 : 02;
  3115 : 01;
  3116 : FF;
  3117 : 02;
  3118 : 01;
  3119 : 01;
  3120 : 01;
  3121 : FF;
  3122 : 00;
  3123 : 01;
  3124 : 01;
  3125 : FD;
  3126 : FD;
  3127 : FF;
  3128 : FF;
  3129 : FC;
  3130 : FE;
  3131 : FE;
  3132 : 00;
  3133 : FC;
  3134 : FF;
  3135 : 01;
  3136 : 02;
  3137 : FE;
  3138 : 01;
  3139 : FC;
  3140 : FE;
  3141 : 02;
  3142 : 02;
  3143 : 01;
  3144 : 02;
  3145 : FC;
  3146 : 02;
  3147 : 01;
  3148 : FE;
  3149 : FE;
  3150 : FC;
  3151 : 02;
  3152 : FC;
  3153 : FC;
  3154 : 02;
  3155 : FC;
  3156 : FE;
  3157 : FE;
  3158 : 00;
  3159 : 01;
  3160 : 00;
  3161 : FE;
  3162 : FF;
  3163 : FD;
  3164 : 03;
  3165 : 00;
  3166 : 02;
  3167 : FD;
  3168 : 03;
  3169 : FF;
  3170 : FE;
  3171 : FE;
  3172 : FF;
  3173 : FD;
  3174 : FC;
  3175 : 01;
  3176 : 03;
  3177 : FD;
  3178 : 02;
  3179 : FD;
  3180 : 00;
  3181 : 00;
  3182 : FD;
  3183 : FD;
  3184 : FE;
  3185 : FF;
  3186 : FD;
  3187 : FC;
  3188 : 02;
  3189 : FD;
  3190 : 00;
  3191 : 01;
  3192 : 01;
  3193 : FF;
  3194 : 01;
  3195 : FF;
  3196 : 00;
  3197 : 01;
  3198 : 01;
  3199 : 01;
  3200 : FD;
  3201 : 01;
  3202 : 02;
  3203 : FE;
  3204 : FD;
  3205 : FD;
  3206 : 02;
  3207 : 00;
  3208 : FE;
  3209 : FD;
  3210 : FF;
  3211 : 03;
  3212 : FF;
  3213 : 01;
  3214 : FD;
  3215 : 02;
  3216 : 00;
  3217 : FC;
  3218 : 01;
  3219 : 00;
  3220 : 00;
  3221 : 00;
  3222 : 02;
  3223 : FE;
  3224 : FF;
  3225 : 01;
  3226 : 00;
  3227 : FF;
  3228 : 01;
  3229 : FF;
  3230 : FE;
  3231 : 01;
  3232 : 00;
  3233 : FD;
  3234 : FF;
  3235 : 02;
  3236 : 03;
  3237 : 02;
  3238 : 03;
  3239 : FE;
  3240 : FC;
  3241 : 00;
  3242 : FC;
  3243 : FE;
  3244 : FE;
  3245 : FE;
  3246 : 00;
  3247 : 00;
  3248 : 01;
  3249 : 02;
  3250 : FE;
  3251 : FE;
  3252 : FE;
  3253 : 02;
  3254 : FD;
  3255 : FE;
  3256 : 02;
  3257 : FE;
  3258 : 03;
  3259 : 00;
  3260 : 00;
  3261 : 01;
  3262 : FD;
  3263 : FE;
  3264 : FD;
  3265 : 02;
  3266 : 02;
  3267 : 01;
  3268 : FE;
  3269 : 00;
  3270 : 00;
  3271 : 00;
  3272 : FD;
  3273 : FC;
  3274 : FF;
  3275 : 00;
  3276 : 01;
  3277 : FC;
  3278 : 00;
  3279 : FD;
  3280 : 01;
  3281 : 01;
  3282 : FF;
  3283 : 03;
  3284 : 01;
  3285 : FC;
  3286 : 00;
  3287 : 00;
  3288 : FF;
  3289 : 02;
  3290 : 02;
  3291 : 01;
  3292 : 00;
  3293 : FF;
  3294 : FE;
  3295 : 02;
  3296 : 00;
  3297 : FE;
  3298 : FE;
  3299 : FD;
  3300 : 02;
  3301 : 03;
  3302 : FD;
  3303 : 02;
  3304 : FF;
  3305 : FC;
  3306 : FF;
  3307 : FE;
  3308 : FC;
  3309 : FE;
  3310 : FF;
  3311 : FD;
  3312 : FE;
  3313 : 02;
  3314 : FF;
  3315 : FD;
  3316 : 03;
  3317 : 04;
  3318 : FD;
  3319 : FC;
  3320 : 02;
  3321 : FD;
  3322 : 03;
  3323 : FE;
  3324 : FD;
  3325 : FE;
  3326 : 02;
  3327 : 03;
  3328 : FD;
  3329 : 02;
  3330 : 01;
  3331 : 01;
  3332 : 03;
  3333 : 01;
  3334 : 02;
  3335 : FC;
  3336 : 00;
  3337 : FE;
  3338 : FC;
  3339 : 02;
  3340 : FF;
  3341 : FF;
  3342 : 00;
  3343 : 04;
  3344 : FE;
  3345 : FF;
  3346 : 01;
  3347 : 03;
  3348 : 01;
  3349 : 00;
  3350 : FF;
  3351 : 01;
  3352 : 03;
  3353 : 00;
  3354 : 00;
  3355 : FF;
  3356 : 00;
  3357 : 03;
  3358 : 03;
  3359 : FF;
  3360 : FE;
  3361 : FF;
  3362 : FF;
  3363 : FE;
  3364 : 01;
  3365 : 00;
  3366 : 02;
  3367 : FE;
  3368 : 02;
  3369 : 00;
  3370 : 02;
  3371 : FD;
  3372 : 01;
  3373 : 01;
  3374 : FF;
  3375 : FF;
  3376 : 01;
  3377 : FF;
  3378 : FF;
  3379 : FD;
  3380 : 02;
  3381 : 01;
  3382 : FE;
  3383 : FE;
  3384 : 01;
  3385 : 02;
  3386 : FE;
  3387 : FE;
  3388 : 02;
  3389 : 00;
  3390 : FC;
  3391 : 02;
  3392 : FC;
  3393 : 03;
  3394 : 00;
  3395 : FF;
  3396 : 00;
  3397 : FE;
  3398 : FE;
  3399 : FD;
  3400 : FD;
  3401 : FD;
  3402 : FC;
  3403 : FE;
  3404 : FE;
  3405 : FC;
  3406 : 02;
  3407 : 02;
  3408 : FC;
  3409 : FD;
  3410 : FD;
  3411 : FD;
  3412 : FE;
  3413 : 02;
  3414 : 01;
  3415 : FF;
  3416 : 01;
  3417 : FD;
  3418 : 00;
  3419 : FE;
  3420 : FE;
  3421 : FF;
  3422 : 03;
  3423 : 00;
  3424 : 00;
  3425 : 03;
  3426 : 02;
  3427 : 00;
  3428 : 00;
  3429 : 02;
  3430 : FC;
  3431 : FE;
  3432 : FD;
  3433 : FF;
  3434 : 00;
  3435 : 02;
  3436 : FE;
  3437 : 01;
  3438 : FF;
  3439 : FD;
  3440 : FE;
  3441 : FC;
  3442 : FE;
  3443 : 00;
  3444 : FF;
  3445 : FF;
  3446 : 00;
  3447 : 02;
  3448 : FE;
  3449 : 02;
  3450 : 01;
  3451 : FD;
  3452 : FC;
  3453 : 01;
  3454 : FC;
  3455 : 01;
  3456 : 02;
  3457 : 01;
  3458 : FC;
  3459 : 01;
  3460 : 00;
  3461 : FE;
  3462 : FC;
  3463 : 00;
  3464 : 02;
  3465 : 02;
  3466 : FD;
  3467 : 00;
  3468 : 02;
  3469 : FD;
  3470 : 00;
  3471 : 02;
  3472 : FE;
  3473 : FF;
  3474 : 01;
  3475 : FF;
  3476 : FC;
  3477 : 02;
  3478 : 02;
  3479 : FF;
  3480 : FD;
  3481 : 00;
  3482 : FE;
  3483 : 02;
  3484 : FF;
  3485 : 02;
  3486 : 01;
  3487 : FF;
  3488 : FE;
  3489 : 00;
  3490 : FF;
  3491 : FF;
  3492 : FE;
  3493 : FD;
  3494 : FE;
  3495 : FE;
  3496 : FF;
  3497 : FE;
  3498 : FE;
  3499 : FC;
  3500 : 00;
  3501 : FF;
  3502 : 00;
  3503 : 01;
  3504 : 00;
  3505 : FE;
  3506 : 02;
  3507 : FF;
  3508 : FC;
  3509 : 00;
  3510 : FD;
  3511 : 00;
  3512 : FF;
  3513 : FF;
  3514 : FD;
  3515 : FD;
  3516 : FE;
  3517 : FD;
  3518 : 01;
  3519 : FE;
  3520 : FF;
  3521 : 01;
  3522 : 00;
  3523 : 00;
  3524 : 01;
  3525 : 01;
  3526 : 00;
  3527 : 02;
  3528 : 03;
  3529 : FE;
  3530 : FC;
  3531 : FD;
  3532 : FF;
  3533 : FE;
  3534 : FD;
  3535 : FC;
  3536 : 03;
  3537 : FD;
  3538 : 02;
  3539 : 00;
  3540 : 00;
  3541 : 02;
  3542 : FC;
  3543 : FE;
  3544 : FE;
  3545 : 01;
  3546 : 00;
  3547 : 03;
  3548 : FC;
  3549 : FF;
  3550 : FC;
  3551 : FD;
  3552 : FD;
  3553 : 01;
  3554 : FD;
  3555 : FE;
  3556 : 02;
  3557 : FD;
  3558 : FD;
  3559 : FD;
  3560 : 02;
  3561 : FF;
  3562 : FC;
  3563 : FD;
  3564 : FF;
  3565 : 00;
  3566 : FE;
  3567 : 02;
  3568 : 00;
  3569 : 01;
  3570 : 00;
  3571 : FE;
  3572 : 02;
  3573 : FC;
  3574 : FC;
  3575 : 01;
  3576 : 02;
  3577 : 01;
  3578 : FD;
  3579 : FE;
  3580 : FF;
  3581 : FE;
  3582 : FD;
  3583 : FF;
  3584 : FF;
  3585 : 00;
  3586 : 02;
  3587 : 02;
  3588 : 02;
  3589 : FD;
  3590 : 00;
  3591 : 02;
  3592 : 01;
  3593 : 00;
  3594 : FD;
  3595 : FC;
  3596 : 02;
  3597 : 00;
  3598 : FC;
  3599 : 03;
  3600 : FC;
  3601 : 01;
  3602 : FE;
  3603 : 01;
  3604 : FE;
  3605 : 01;
  3606 : 02;
  3607 : FE;
  3608 : FF;
  3609 : FC;
  3610 : FF;
  3611 : 02;
  3612 : 01;
  3613 : FD;
  3614 : 01;
  3615 : 03;
  3616 : 03;
  3617 : 00;
  3618 : FE;
  3619 : FD;
  3620 : 00;
  3621 : FC;
  3622 : 02;
  3623 : FD;
  3624 : 00;
  3625 : FD;
  3626 : 00;
  3627 : FF;
  3628 : FE;
  3629 : 03;
  3630 : 02;
  3631 : FF;
  3632 : FC;
  3633 : 00;
  3634 : FE;
  3635 : 02;
  3636 : FD;
  3637 : FD;
  3638 : 00;
  3639 : FC;
  3640 : FE;
  3641 : FE;
  3642 : FC;
  3643 : 00;
  3644 : FE;
  3645 : FD;
  3646 : FE;
  3647 : FF;
  3648 : FC;
  3649 : 02;
  3650 : FF;
  3651 : FD;
  3652 : FC;
  3653 : FE;
  3654 : 02;
  3655 : FC;
  3656 : 01;
  3657 : 01;
  3658 : FE;
  3659 : FF;
  3660 : 02;
  3661 : 02;
  3662 : 00;
  3663 : FF;
  3664 : 01;
  3665 : 02;
  3666 : 01;
  3667 : FF;
  3668 : 02;
  3669 : FF;
  3670 : FE;
  3671 : FF;
  3672 : 00;
  3673 : 02;
  3674 : FC;
  3675 : FE;
  3676 : FF;
  3677 : 02;
  3678 : 01;
  3679 : 02;
  3680 : FC;
  3681 : FC;
  3682 : FD;
  3683 : 02;
  3684 : FD;
  3685 : 03;
  3686 : FC;
  3687 : 02;
  3688 : 01;
  3689 : FF;
  3690 : FF;
  3691 : 00;
  3692 : 02;
  3693 : FD;
  3694 : 02;
  3695 : 03;
  3696 : FF;
  3697 : FE;
  3698 : 01;
  3699 : FC;
  3700 : 02;
  3701 : 00;
  3702 : 02;
  3703 : FD;
  3704 : 00;
  3705 : FF;
  3706 : FD;
  3707 : 01;
  3708 : FF;
  3709 : FC;
  3710 : FC;
  3711 : 02;
  3712 : 00;
  3713 : 01;
  3714 : FF;
  3715 : FE;
  3716 : 01;
  3717 : FF;
  3718 : 00;
  3719 : 01;
  3720 : FF;
  3721 : FC;
  3722 : 03;
  3723 : 03;
  3724 : 01;
  3725 : FD;
  3726 : FF;
  3727 : 00;
  3728 : 01;
  3729 : FD;
  3730 : 02;
  3731 : FD;
  3732 : 02;
  3733 : 01;
  3734 : 01;
  3735 : FF;
  3736 : 03;
  3737 : 02;
  3738 : 00;
  3739 : FF;
  3740 : FC;
  3741 : FC;
  3742 : 01;
  3743 : 00;
  3744 : 00;
  3745 : FF;
  3746 : 03;
  3747 : FC;
  3748 : FC;
  3749 : FE;
  3750 : FE;
  3751 : FC;
  3752 : 00;
  3753 : 01;
  3754 : FF;
  3755 : 00;
  3756 : 01;
  3757 : 01;
  3758 : FE;
  3759 : FD;
  3760 : FF;
  3761 : FD;
  3762 : 03;
  3763 : 01;
  3764 : FF;
  3765 : FE;
  3766 : 02;
  3767 : 00;
  3768 : 04;
  3769 : 04;
  3770 : 01;
  3771 : FC;
  3772 : FC;
  3773 : FE;
  3774 : 02;
  3775 : 00;
  3776 : 01;
  3777 : FF;
  3778 : 01;
  3779 : 01;
  3780 : FE;
  3781 : 03;
  3782 : FE;
  3783 : 01;
  3784 : FD;
  3785 : 02;
  3786 : FE;
  3787 : 00;
  3788 : FD;
  3789 : 01;
  3790 : 01;
  3791 : FE;
  3792 : FD;
  3793 : FD;
  3794 : FE;
  3795 : FD;
  3796 : FC;
  3797 : FF;
  3798 : 00;
  3799 : FE;
  3800 : FF;
  3801 : 00;
  3802 : FD;
  3803 : FF;
  3804 : FF;
  3805 : FE;
  3806 : 01;
  3807 : 03;
  3808 : FF;
  3809 : FD;
  3810 : FF;
  3811 : 01;
  3812 : FC;
  3813 : 01;
  3814 : 01;
  3815 : 02;
  3816 : FE;
  3817 : FF;
  3818 : FF;
  3819 : 01;
  3820 : FE;
  3821 : 02;
  3822 : FE;
  3823 : 00;
  3824 : FE;
  3825 : 02;
  3826 : FD;
  3827 : FD;
  3828 : 00;
  3829 : 01;
  3830 : FE;
  3831 : 01;
  3832 : 02;
  3833 : 01;
  3834 : 02;
  3835 : 01;
  3836 : 04;
  3837 : 00;
  3838 : FD;
  3839 : 02;
  3840 : 00;
  3841 : FC;
  3842 : FF;
  3843 : FD;
  3844 : 01;
  3845 : FD;
  3846 : 01;
  3847 : FD;
  3848 : 02;
  3849 : 03;
  3850 : 03;
  3851 : FE;
  3852 : FF;
  3853 : FD;
  3854 : FD;
  3855 : FD;
  3856 : 01;
  3857 : FE;
  3858 : 01;
  3859 : 03;
  3860 : 02;
  3861 : 01;
  3862 : 03;
  3863 : 03;
  3864 : FF;
  3865 : 03;
  3866 : FF;
  3867 : 01;
  3868 : FC;
  3869 : 04;
  3870 : 00;
  3871 : 03;
  3872 : FE;
  3873 : 01;
  3874 : 02;
  3875 : 01;
  3876 : 03;
  3877 : 04;
  3878 : 04;
  3879 : 01;
  3880 : FE;
  3881 : 01;
  3882 : 02;
  3883 : FD;
  3884 : 01;
  3885 : FD;
  3886 : FE;
  3887 : FF;
  3888 : 01;
  3889 : 03;
  3890 : 02;
  3891 : 02;
  3892 : FD;
  3893 : FF;
  3894 : FD;
  3895 : FF;
  3896 : 00;
  3897 : 02;
  3898 : 00;
  3899 : 00;
  3900 : FF;
  3901 : 00;
  3902 : 03;
  3903 : 00;
  3904 : 01;
  3905 : FF;
  3906 : FD;
  3907 : FD;
  3908 : 02;
  3909 : 00;
  3910 : 01;
  3911 : FD;
  3912 : 02;
  3913 : 03;
  3914 : FE;
  3915 : 01;
  3916 : FF;
  3917 : 02;
  3918 : 02;
  3919 : 01;
  3920 : 00;
  3921 : 02;
  3922 : FD;
  3923 : 02;
  3924 : FD;
  3925 : FC;
  3926 : 01;
  3927 : 00;
  3928 : 02;
  3929 : 02;
  3930 : FE;
  3931 : 02;
  3932 : 02;
  3933 : 02;
  3934 : 02;
  3935 : FD;
  3936 : 00;
  3937 : 03;
  3938 : 00;
  3939 : 01;
  3940 : 01;
  3941 : 02;
  3942 : FE;
  3943 : 02;
  3944 : 02;
  3945 : 00;
  3946 : 02;
  3947 : FC;
  3948 : FE;
  3949 : 03;
  3950 : FF;
  3951 : FD;
  3952 : 00;
  3953 : 00;
  3954 : FE;
  3955 : 00;
  3956 : 01;
  3957 : FF;
  3958 : FC;
  3959 : 01;
  3960 : 02;
  3961 : FD;
  3962 : 00;
  3963 : FF;
  3964 : 01;
  3965 : FE;
  3966 : 01;
  3967 : 01;
  3968 : FE;
  3969 : FF;
  3970 : FF;
  3971 : FF;
  3972 : FF;
  3973 : FE;
  3974 : FC;
  3975 : FF;
  3976 : FE;
  3977 : 02;
  3978 : 02;
  3979 : FE;
  3980 : FC;
  3981 : 00;
  3982 : 00;
  3983 : 03;
  3984 : FD;
  3985 : 01;
  3986 : 03;
  3987 : FC;
  3988 : FE;
  3989 : 00;
  3990 : FF;
  3991 : 01;
  3992 : 02;
  3993 : 01;
  3994 : 01;
  3995 : FD;
  3996 : 03;
  3997 : 01;
  3998 : FD;
  3999 : FE;
  4000 : FE;
  4001 : FD;
  4002 : FC;
  4003 : 00;
  4004 : 02;
  4005 : FE;
  4006 : FC;
  4007 : 03;
  4008 : 00;
  4009 : FE;
  4010 : FE;
  4011 : FF;
  4012 : FD;
  4013 : FC;
  4014 : FF;
  4015 : 00;
  4016 : 02;
  4017 : FD;
  4018 : 00;
  4019 : FE;
  4020 : FE;
  4021 : 02;
  4022 : FF;
  4023 : FD;
  4024 : 01;
  4025 : FF;
  4026 : 01;
  4027 : FD;
  4028 : FF;
  4029 : FF;
  4030 : FE;
  4031 : FC;
  4032 : FD;
  4033 : FD;
  4034 : FF;
  4035 : 02;
  4036 : FE;
  4037 : 01;
  4038 : 02;
  4039 : FE;
  4040 : 03;
  4041 : 01;
  4042 : FC;
  4043 : FD;
  4044 : FD;
  4045 : 01;
  4046 : FF;
  4047 : 01;
  4048 : FD;
  4049 : FE;
  4050 : FD;
  4051 : FD;
  4052 : FF;
  4053 : 01;
  4054 : 01;
  4055 : 00;
  4056 : 00;
  4057 : 01;
  4058 : FF;
  4059 : FE;
  4060 : 00;
  4061 : 00;
  4062 : 00;
  4063 : FE;
  4064 : FF;
  4065 : FD;
  4066 : 02;
  4067 : FE;
  4068 : FD;
  4069 : 02;
  4070 : FF;
  4071 : FD;
  4072 : 01;
  4073 : 03;
  4074 : FE;
  4075 : 00;
  4076 : FF;
  4077 : FE;
  4078 : FE;
  4079 : FF;
  4080 : 02;
  4081 : 01;
  4082 : 00;
  4083 : FD;
  4084 : FE;
  4085 : FD;
  4086 : FD;
  4087 : 00;
  4088 : FD;
  4089 : 03;
  4090 : 00;
  4091 : FE;
  4092 : FC;
  4093 : FD;
  4094 : FE;
  4095 : FD;
  4096 : 00;
  4097 : 01;
  4098 : 00;
  4099 : FF;
  4100 : FE;
  4101 : FE;
  4102 : 02;
  4103 : FF;
  4104 : FC;
  4105 : 02;
  4106 : 01;
  4107 : FD;
  4108 : FF;
  4109 : 02;
  4110 : 03;
  4111 : FE;
  4112 : 03;
  4113 : 00;
  4114 : 01;
  4115 : 00;
  4116 : 00;
  4117 : 02;
  4118 : 01;
  4119 : FF;
  4120 : FD;
  4121 : 03;
  4122 : 01;
  4123 : 03;
  4124 : FD;
  4125 : FF;
  4126 : 03;
  4127 : 02;
  4128 : 03;
  4129 : FF;
  4130 : 02;
  4131 : FD;
  4132 : FD;
  4133 : 02;
  4134 : 00;
  4135 : 02;
  4136 : 01;
  4137 : 01;
  4138 : 01;
  4139 : 03;
  4140 : 01;
  4141 : 01;
  4142 : FD;
  4143 : FD;
  4144 : 03;
  4145 : 03;
  4146 : FF;
  4147 : 01;
  4148 : 02;
  4149 : 03;
  4150 : FE;
  4151 : 00;
  4152 : FE;
  4153 : FE;
  4154 : 04;
  4155 : FF;
  4156 : FF;
  4157 : 00;
  4158 : 01;
  4159 : 02;
  4160 : FD;
  4161 : 02;
  4162 : FD;
  4163 : 01;
  4164 : FE;
  4165 : FC;
  4166 : FE;
  4167 : FE;
  4168 : 02;
  4169 : FF;
  4170 : 00;
  4171 : 03;
  4172 : FF;
  4173 : 03;
  4174 : 02;
  4175 : FF;
  4176 : FE;
  4177 : FD;
  4178 : FC;
  4179 : FE;
  4180 : FD;
  4181 : FF;
  4182 : 03;
  4183 : 03;
  4184 : 01;
  4185 : 02;
  4186 : FE;
  4187 : 00;
  4188 : FF;
  4189 : FE;
  4190 : 01;
  4191 : FD;
  4192 : FF;
  4193 : FE;
  4194 : 02;
  4195 : FE;
  4196 : 03;
  4197 : 02;
  4198 : 01;
  4199 : FD;
  4200 : 00;
  4201 : 01;
  4202 : 02;
  4203 : 02;
  4204 : 00;
  4205 : 01;
  4206 : FD;
  4207 : 03;
  4208 : 01;
  4209 : 02;
  4210 : FF;
  4211 : 00;
  4212 : FF;
  4213 : FD;
  4214 : 01;
  4215 : 03;
  4216 : 02;
  4217 : FF;
  4218 : FD;
  4219 : FD;
  4220 : 02;
  4221 : FD;
  4222 : 00;
  4223 : 03;
  4224 : FE;
  4225 : 01;
  4226 : FD;
  4227 : 02;
  4228 : FF;
  4229 : 00;
  4230 : 00;
  4231 : FF;
  4232 : 01;
  4233 : 01;
  4234 : FF;
  4235 : FC;
  4236 : FD;
  4237 : FC;
  4238 : FE;
  4239 : 00;
  4240 : 00;
  4241 : 01;
  4242 : FD;
  4243 : 01;
  4244 : FC;
  4245 : FD;
  4246 : FD;
  4247 : FE;
  4248 : 02;
  4249 : FF;
  4250 : FE;
  4251 : 00;
  4252 : FF;
  4253 : FC;
  4254 : 01;
  4255 : FF;
  4256 : 03;
  4257 : FF;
  4258 : FE;
  4259 : FC;
  4260 : 01;
  4261 : FD;
  4262 : 00;
  4263 : 00;
  4264 : 01;
  4265 : FD;
  4266 : FD;
  4267 : FE;
  4268 : 00;
  4269 : 03;
  4270 : FF;
  4271 : FE;
  4272 : FC;
  4273 : 01;
  4274 : 00;
  4275 : FC;
  4276 : FF;
  4277 : 01;
  4278 : 00;
  4279 : FD;
  4280 : FE;
  4281 : 00;
  4282 : 02;
  4283 : FF;
  4284 : FC;
  4285 : FE;
  4286 : FF;
  4287 : 00;
  4288 : 02;
  4289 : 00;
  4290 : FC;
  4291 : FD;
  4292 : FD;
  4293 : FE;
  4294 : FF;
  4295 : 02;
  4296 : 00;
  4297 : 03;
  4298 : 00;
  4299 : 00;
  4300 : 01;
  4301 : FE;
  4302 : 00;
  4303 : 00;
  4304 : 02;
  4305 : FF;
  4306 : 02;
  4307 : 00;
  4308 : FE;
  4309 : 01;
  4310 : FE;
  4311 : 02;
  4312 : 00;
  4313 : FD;
  4314 : 01;
  4315 : FD;
  4316 : FD;
  4317 : FC;
  4318 : 01;
  4319 : FF;
  4320 : FC;
  4321 : 02;
  4322 : FE;
  4323 : 01;
  4324 : 02;
  4325 : 02;
  4326 : 01;
  4327 : FD;
  4328 : 02;
  4329 : FF;
  4330 : FF;
  4331 : FD;
  4332 : 02;
  4333 : 02;
  4334 : FE;
  4335 : FE;
  4336 : 01;
  4337 : 02;
  4338 : FC;
  4339 : 01;
  4340 : FE;
  4341 : 02;
  4342 : FF;
  4343 : FF;
  4344 : FD;
  4345 : FD;
  4346 : 02;
  4347 : 02;
  4348 : 00;
  4349 : FC;
  4350 : FE;
  4351 : 02;
  4352 : FD;
  4353 : FD;
  4354 : FD;
  4355 : FF;
  4356 : FD;
  4357 : FD;
  4358 : 00;
  4359 : FE;
  4360 : FF;
  4361 : 00;
  4362 : FE;
  4363 : 01;
  4364 : FE;
  4365 : FC;
  4366 : FD;
  4367 : FE;
  4368 : 02;
  4369 : FE;
  4370 : 01;
  4371 : 01;
  4372 : 01;
  4373 : 01;
  4374 : 00;
  4375 : FF;
  4376 : 00;
  4377 : 02;
  4378 : 01;
  4379 : FE;
  4380 : 01;
  4381 : 01;
  4382 : FE;
  4383 : 02;
  4384 : 00;
  4385 : 00;
  4386 : FF;
  4387 : 02;
  4388 : FC;
  4389 : 02;
  4390 : 00;
  4391 : FE;
  4392 : FF;
  4393 : 00;
  4394 : 00;
  4395 : 01;
  4396 : 02;
  4397 : 02;
  4398 : 02;
  4399 : FE;
  4400 : FC;
  4401 : FD;
  4402 : FF;
  4403 : 03;
  4404 : FF;
  4405 : FD;
  4406 : FF;
  4407 : FC;
  4408 : 00;
  4409 : FD;
  4410 : FC;
  4411 : FD;
  4412 : 00;
  4413 : FE;
  4414 : 00;
  4415 : 01;
  4416 : FC;
  4417 : FC;
  4418 : 02;
  4419 : 03;
  4420 : 00;
  4421 : FE;
  4422 : FF;
  4423 : FF;
  4424 : 00;
  4425 : 00;
  4426 : FD;
  4427 : 02;
  4428 : FF;
  4429 : 03;
  4430 : 00;
  4431 : 00;
  4432 : FC;
  4433 : FD;
  4434 : 02;
  4435 : FC;
  4436 : FF;
  4437 : FD;
  4438 : FD;
  4439 : FF;
  4440 : 01;
  4441 : 02;
  4442 : 00;
  4443 : FE;
  4444 : 00;
  4445 : 02;
  4446 : 00;
  4447 : 02;
  4448 : FE;
  4449 : FC;
  4450 : FF;
  4451 : 01;
  4452 : 02;
  4453 : FD;
  4454 : FC;
  4455 : 01;
  4456 : 00;
  4457 : FC;
  4458 : 02;
  4459 : 01;
  4460 : 02;
  4461 : FD;
  4462 : 02;
  4463 : FF;
  4464 : 01;
  4465 : 00;
  4466 : FF;
  4467 : FE;
  4468 : 02;
  4469 : FE;
  4470 : 03;
  4471 : FF;
  4472 : 00;
  4473 : 01;
  4474 : FF;
  4475 : FC;
  4476 : FD;
  4477 : FD;
  4478 : FD;
  4479 : FF;
  4480 : FE;
  4481 : 01;
  4482 : FD;
  4483 : 00;
  4484 : 02;
  4485 : FC;
  4486 : 02;
  4487 : FD;
  4488 : 00;
  4489 : 00;
  4490 : FD;
  4491 : FC;
  4492 : 02;
  4493 : 02;
  4494 : FF;
  4495 : 00;
  4496 : FD;
  4497 : FF;
  4498 : 02;
  4499 : FE;
  4500 : FD;
  4501 : 00;
  4502 : FF;
  4503 : 00;
  4504 : FF;
  4505 : FF;
  4506 : FF;
  4507 : FF;
  4508 : FF;
  4509 : 02;
  4510 : FD;
  4511 : 01;
  4512 : 01;
  4513 : 01;
  4514 : 00;
  4515 : FD;
  4516 : 02;
  4517 : 01;
  4518 : 01;
  4519 : FE;
  4520 : 01;
  4521 : FE;
  4522 : 02;
  4523 : FE;
  4524 : FE;
  4525 : FE;
  4526 : 00;
  4527 : 02;
  4528 : FD;
  4529 : FC;
  4530 : 00;
  4531 : FD;
  4532 : 00;
  4533 : FE;
  4534 : 02;
  4535 : FD;
  4536 : FE;
  4537 : FF;
  4538 : FE;
  4539 : FC;
  4540 : FE;
  4541 : 02;
  4542 : 00;
  4543 : FE;
  4544 : 01;
  4545 : FC;
  4546 : FF;
  4547 : 02;
  4548 : FD;
  4549 : FC;
  4550 : 02;
  4551 : FC;
  4552 : FF;
  4553 : FE;
  4554 : FD;
  4555 : 00;
  4556 : FC;
  4557 : FE;
  4558 : FF;
  4559 : 01;
  4560 : FF;
  4561 : FE;
  4562 : 01;
  4563 : 02;
  4564 : FF;
  4565 : 02;
  4566 : 01;
  4567 : 02;
  4568 : 00;
  4569 : FE;
  4570 : 00;
  4571 : 00;
  4572 : FE;
  4573 : 03;
  4574 : 00;
  4575 : 01;
  4576 : FE;
  4577 : 02;
  4578 : 00;
  4579 : 04;
  4580 : 00;
  4581 : FF;
  4582 : FC;
  4583 : FC;
  4584 : FF;
  4585 : FC;
  4586 : 01;
  4587 : FE;
  4588 : FD;
  4589 : FE;
  4590 : 03;
  4591 : FE;
  4592 : FE;
  4593 : FE;
  4594 : 02;
  4595 : FF;
  4596 : 01;
  4597 : FC;
  4598 : 02;
  4599 : FF;
  4600 : FF;
  4601 : 02;
  4602 : FF;
  4603 : FE;
  4604 : 00;
  4605 : 02;
  4606 : FF;
  4607 : FC;
  4608 : 02;
  4609 : FF;
  4610 : 01;
  4611 : FE;
  4612 : 00;
  4613 : 02;
  4614 : FF;
  4615 : 01;
  4616 : 01;
  4617 : 01;
  4618 : FC;
  4619 : FF;
  4620 : 00;
  4621 : 00;
  4622 : 02;
  4623 : FC;
  4624 : 02;
  4625 : 01;
  4626 : 01;
  4627 : 02;
  4628 : 03;
  4629 : 00;
  4630 : 00;
  4631 : 01;
  4632 : FC;
  4633 : 01;
  4634 : 00;
  4635 : FE;
  4636 : FC;
  4637 : 00;
  4638 : FF;
  4639 : FD;
  4640 : 02;
  4641 : 00;
  4642 : 00;
  4643 : FD;
  4644 : 01;
  4645 : 03;
  4646 : FF;
  4647 : 01;
  4648 : 02;
  4649 : 01;
  4650 : 00;
  4651 : 00;
  4652 : FD;
  4653 : 00;
  4654 : 02;
  4655 : FE;
  4656 : 02;
  4657 : 01;
  4658 : 01;
  4659 : FF;
  4660 : FE;
  4661 : FF;
  4662 : FF;
  4663 : FE;
  4664 : 02;
  4665 : 02;
  4666 : 02;
  4667 : FF;
  4668 : 01;
  4669 : 00;
  4670 : 00;
  4671 : 04;
  4672 : FE;
  4673 : FD;
  4674 : 00;
  4675 : 01;
  4676 : 02;
  4677 : FF;
  4678 : FE;
  4679 : 01;
  4680 : 01;
  4681 : 01;
  4682 : FD;
  4683 : 01;
  4684 : 02;
  4685 : FD;
  4686 : 02;
  4687 : FC;
  4688 : FD;
  4689 : FD;
  4690 : 02;
  4691 : 00;
  4692 : FE;
  4693 : FF;
  4694 : 02;
  4695 : 02;
  4696 : FF;
  4697 : 02;
  4698 : FE;
  4699 : 02;
  4700 : FE;
  4701 : FD;
  4702 : 00;
  4703 : 00;
  4704 : 02;
  4705 : 02;
  4706 : 02;
  4707 : FE;
  4708 : 02;
  4709 : 03;
  4710 : FD;
  4711 : 00;
  4712 : 03;
  4713 : 02;
  4714 : 00;
  4715 : FD;
  4716 : FD;
  4717 : 03;
  4718 : 03;
  4719 : FD;
  4720 : 00;
  4721 : 00;
  4722 : FE;
  4723 : 01;
  4724 : FD;
  4725 : 02;
  4726 : 02;
  4727 : FF;
  4728 : 02;
  4729 : 02;
  4730 : 01;
  4731 : 00;
  4732 : 02;
  4733 : FF;
  4734 : FF;
  4735 : FE;
  4736 : 02;
  4737 : FC;
  4738 : FF;
  4739 : FD;
  4740 : FC;
  4741 : 01;
  4742 : FE;
  4743 : 01;
  4744 : 02;
  4745 : FF;
  4746 : 02;
  4747 : 01;
  4748 : FF;
  4749 : FF;
  4750 : 02;
  4751 : 01;
  4752 : FC;
  4753 : 00;
  4754 : FC;
  4755 : 02;
  4756 : 02;
  4757 : FF;
  4758 : FF;
  4759 : FF;
  4760 : FE;
  4761 : 01;
  4762 : FE;
  4763 : FF;
  4764 : FE;
  4765 : FE;
  4766 : FC;
  4767 : FD;
  4768 : FD;
  4769 : 00;
  4770 : 01;
  4771 : 01;
  4772 : FF;
  4773 : 00;
  4774 : FD;
  4775 : FD;
  4776 : 00;
  4777 : 02;
  4778 : 01;
  4779 : 01;
  4780 : FD;
  4781 : 02;
  4782 : 00;
  4783 : FC;
  4784 : FF;
  4785 : 01;
  4786 : 02;
  4787 : 01;
  4788 : FF;
  4789 : FD;
  4790 : FE;
  4791 : FC;
  4792 : 01;
  4793 : FC;
  4794 : 00;
  4795 : 00;
  4796 : FC;
  4797 : 00;
  4798 : FE;
  4799 : 01;
  4800 : FE;
  4801 : 01;
  4802 : 01;
  4803 : FF;
  4804 : FD;
  4805 : 01;
  4806 : FC;
  4807 : 00;
  4808 : FD;
  4809 : 02;
  4810 : FF;
  4811 : 03;
  4812 : FC;
  4813 : FE;
  4814 : 02;
  4815 : FC;
  4816 : FD;
  4817 : 01;
  4818 : 02;
  4819 : FC;
  4820 : 02;
  4821 : 01;
  4822 : 02;
  4823 : FC;
  4824 : FE;
  4825 : 02;
  4826 : 02;
  4827 : FE;
  4828 : 00;
  4829 : 01;
  4830 : FF;
  4831 : 02;
  4832 : 02;
  4833 : FF;
  4834 : FF;
  4835 : 03;
  4836 : 00;
  4837 : FD;
  4838 : 02;
  4839 : FD;
  4840 : FE;
  4841 : 02;
  4842 : FF;
  4843 : 02;
  4844 : 00;
  4845 : 00;
  4846 : FD;
  4847 : FE;
  4848 : 02;
  4849 : FC;
  4850 : FD;
  4851 : FD;
  4852 : FF;
  4853 : 00;
  4854 : FE;
  4855 : FE;
  4856 : 02;
  4857 : 02;
  4858 : FF;
  4859 : 00;
  4860 : FF;
  4861 : FD;
  4862 : FC;
  4863 : FE;
  4864 : 00;
  4865 : FD;
  4866 : FE;
  4867 : FE;
  4868 : FC;
  4869 : 00;
  4870 : FE;
  4871 : 00;
  4872 : FD;
  4873 : 00;
  4874 : FD;
  4875 : 00;
  4876 : 01;
  4877 : 00;
  4878 : 00;
  4879 : FE;
  4880 : 00;
  4881 : 01;
  4882 : 02;
  4883 : FE;
  4884 : FC;
  4885 : 00;
  4886 : FC;
  4887 : FD;
  4888 : 01;
  4889 : FF;
  4890 : FC;
  4891 : FE;
  4892 : FD;
  4893 : 00;
  4894 : 01;
  4895 : 03;
  4896 : 00;
  4897 : 03;
  4898 : 01;
  4899 : 01;
  4900 : 02;
  4901 : FC;
  4902 : FC;
  4903 : FD;
  4904 : FF;
  4905 : 01;
  4906 : 02;
  4907 : 02;
  4908 : FC;
  4909 : 00;
  4910 : FC;
  4911 : 02;
  4912 : 01;
  4913 : FE;
  4914 : 03;
  4915 : FF;
  4916 : FF;
  4917 : FC;
  4918 : FC;
  4919 : FD;
  4920 : 01;
  4921 : FD;
  4922 : FE;
  4923 : 00;
  4924 : FC;
  4925 : 00;
  4926 : 01;
  4927 : 00;
  4928 : FD;
  4929 : 00;
  4930 : FD;
  4931 : 01;
  4932 : 00;
  4933 : FE;
  4934 : FE;
  4935 : 01;
  4936 : 01;
  4937 : 00;
  4938 : 00;
  4939 : FD;
  4940 : 02;
  4941 : 02;
  4942 : FC;
  4943 : 03;
  4944 : FD;
  4945 : 01;
  4946 : 03;
  4947 : FF;
  4948 : FD;
  4949 : 03;
  4950 : FD;
  4951 : 02;
  4952 : 02;
  4953 : 02;
  4954 : 00;
  4955 : 00;
  4956 : FC;
  4957 : FE;
  4958 : FC;
  4959 : 01;
  4960 : FD;
  4961 : 03;
  4962 : FD;
  4963 : FF;
  4964 : FE;
  4965 : 01;
  4966 : FE;
  4967 : 02;
  4968 : 03;
  4969 : FF;
  4970 : FF;
  4971 : FF;
  4972 : FE;
  4973 : FE;
  4974 : FF;
  4975 : FF;
  4976 : 00;
  4977 : 02;
  4978 : 01;
  4979 : 01;
  4980 : 01;
  4981 : 01;
  4982 : FD;
  4983 : 02;
  4984 : 02;
  4985 : FE;
  4986 : 01;
  4987 : 00;
  4988 : 00;
  4989 : 02;
  4990 : 03;
  4991 : 00;
  4992 : FF;
  4993 : 01;
  4994 : 01;
  4995 : 01;
  4996 : FF;
  4997 : 01;
  4998 : 03;
  4999 : 02;
  5000 : FC;
  5001 : FC;
  5002 : 02;
  5003 : 00;
  5004 : 00;
  5005 : FD;
  5006 : 00;
  5007 : 02;
  5008 : FD;
  5009 : 02;
  5010 : FF;
  5011 : FF;
  5012 : FD;
  5013 : FC;
  5014 : FE;
  5015 : FC;
  5016 : 00;
  5017 : FE;
  5018 : FC;
  5019 : FE;
  5020 : FC;
  5021 : 02;
  5022 : 01;
  5023 : 02;
  5024 : FC;
  5025 : 01;
  5026 : FD;
  5027 : 00;
  5028 : FE;
  5029 : FC;
  5030 : FF;
  5031 : 01;
  5032 : 02;
  5033 : 01;
  5034 : 02;
  5035 : FF;
  5036 : FD;
  5037 : 00;
  5038 : 01;
  5039 : 01;
  5040 : 02;
  5041 : FD;
  5042 : 01;
  5043 : FF;
  5044 : FF;
  5045 : 02;
  5046 : 02;
  5047 : 00;
  5048 : FD;
  5049 : 01;
  5050 : FF;
  5051 : 01;
  5052 : FE;
  5053 : 01;
  5054 : 03;
  5055 : 00;
  5056 : 02;
  5057 : 01;
  5058 : FE;
  5059 : 02;
  5060 : 02;
  5061 : 00;
  5062 : FC;
  5063 : 02;
  5064 : 01;
  5065 : FE;
  5066 : FF;
  5067 : 01;
  5068 : FF;
  5069 : FE;
  5070 : 03;
  5071 : FD;
  5072 : 01;
  5073 : FF;
  5074 : 01;
  5075 : 03;
  5076 : 03;
  5077 : FC;
  5078 : 00;
  5079 : FD;
  5080 : 02;
  5081 : 03;
  5082 : FE;
  5083 : FF;
  5084 : 02;
  5085 : FF;
  5086 : 04;
  5087 : 01;
  5088 : FC;
  5089 : FE;
  5090 : 01;
  5091 : FF;
  5092 : FC;
  5093 : FD;
  5094 : FC;
  5095 : 03;
  5096 : FF;
  5097 : FE;
  5098 : FF;
  5099 : 00;
  5100 : FD;
  5101 : 02;
  5102 : 00;
  5103 : 02;
  5104 : FD;
  5105 : 02;
  5106 : FC;
  5107 : 00;
  5108 : FC;
  5109 : 04;
  5110 : 02;
  5111 : FF;
  5112 : FE;
  5113 : FF;
  5114 : 02;
  5115 : 01;
  5116 : 00;
  5117 : 00;
  5118 : FC;
  5119 : FC;
  5120 : FD;
  5121 : 01;
  5122 : 03;
  5123 : 01;
  5124 : FD;
  5125 : FE;
  5126 : 02;
  5127 : FE;
  5128 : 02;
  5129 : FF;
  5130 : FD;
  5131 : 02;
  5132 : FE;
  5133 : FD;
  5134 : 00;
  5135 : 00;
  5136 : 04;
  5137 : FD;
  5138 : 01;
  5139 : 01;
  5140 : FE;
  5141 : 01;
  5142 : FC;
  5143 : FD;
  5144 : FD;
  5145 : FF;
  5146 : FE;
  5147 : 00;
  5148 : 00;
  5149 : FF;
  5150 : FF;
  5151 : FE;
  5152 : 00;
  5153 : 01;
  5154 : FE;
  5155 : FD;
  5156 : FF;
  5157 : 01;
  5158 : FD;
  5159 : FC;
  5160 : FD;
  5161 : FF;
  5162 : 02;
  5163 : FF;
  5164 : 01;
  5165 : 00;
  5166 : FF;
  5167 : FF;
  5168 : 02;
  5169 : 02;
  5170 : 01;
  5171 : 01;
  5172 : 01;
  5173 : 02;
  5174 : FF;
  5175 : FC;
  5176 : 00;
  5177 : 00;
  5178 : 02;
  5179 : 02;
  5180 : FE;
  5181 : 01;
  5182 : FC;
  5183 : FF;
  5184 : 01;
  5185 : FD;
  5186 : FD;
  5187 : 03;
  5188 : FF;
  5189 : FF;
  5190 : FE;
  5191 : FC;
  5192 : 02;
  5193 : FE;
  5194 : 02;
  5195 : 00;
  5196 : 02;
  5197 : FD;
  5198 : FE;
  5199 : FE;
  5200 : FD;
  5201 : FF;
  5202 : FE;
  5203 : 00;
  5204 : 02;
  5205 : 01;
  5206 : 02;
  5207 : FC;
  5208 : 00;
  5209 : FE;
  5210 : 00;
  5211 : 03;
  5212 : 01;
  5213 : FE;
  5214 : FE;
  5215 : FE;
  5216 : 00;
  5217 : FE;
  5218 : FC;
  5219 : FD;
  5220 : FE;
  5221 : 01;
  5222 : FF;
  5223 : 01;
  5224 : 00;
  5225 : FD;
  5226 : 00;
  5227 : 03;
  5228 : 01;
  5229 : 00;
  5230 : FC;
  5231 : FF;
  5232 : 01;
  5233 : 01;
  5234 : FF;
  5235 : 02;
  5236 : 01;
  5237 : FD;
  5238 : FE;
  5239 : FC;
  5240 : FC;
  5241 : 01;
  5242 : FE;
  5243 : FE;
  5244 : FF;
  5245 : FC;
  5246 : 02;
  5247 : FF;
  5248 : FD;
  5249 : FE;
  5250 : FE;
  5251 : FD;
  5252 : FD;
  5253 : FE;
  5254 : FF;
  5255 : 00;
  5256 : FF;
  5257 : 01;
  5258 : FF;
  5259 : FC;
  5260 : FD;
  5261 : 01;
  5262 : FE;
  5263 : 02;
  5264 : 02;
  5265 : FE;
  5266 : FE;
  5267 : FD;
  5268 : 01;
  5269 : 02;
  5270 : FE;
  5271 : FD;
  5272 : FC;
  5273 : 02;
  5274 : FE;
  5275 : FC;
  5276 : FD;
  5277 : FC;
  5278 : FD;
  5279 : 02;
  5280 : FD;
  5281 : 03;
  5282 : FD;
  5283 : FD;
  5284 : 00;
  5285 : 00;
  5286 : 03;
  5287 : 00;
  5288 : 00;
  5289 : 01;
  5290 : FE;
  5291 : FD;
  5292 : FE;
  5293 : FF;
  5294 : FF;
  5295 : FE;
  5296 : 02;
  5297 : FE;
  5298 : FC;
  5299 : 02;
  5300 : 03;
  5301 : 00;
  5302 : 01;
  5303 : FD;
  5304 : FD;
  5305 : FD;
  5306 : FE;
  5307 : 02;
  5308 : FD;
  5309 : FD;
  5310 : 00;
  5311 : FD;
  5312 : FF;
  5313 : FF;
  5314 : FE;
  5315 : FE;
  5316 : FC;
  5317 : FC;
  5318 : FF;
  5319 : 02;
  5320 : FF;
  5321 : FD;
  5322 : 03;
  5323 : FE;
  5324 : FE;
  5325 : 00;
  5326 : 00;
  5327 : 01;
  5328 : FE;
  5329 : FC;
  5330 : 02;
  5331 : FE;
  5332 : 03;
  5333 : 00;
  5334 : 02;
  5335 : 01;
  5336 : FF;
  5337 : FE;
  5338 : 00;
  5339 : FE;
  5340 : FE;
  5341 : FC;
  5342 : FF;
  5343 : 02;
  5344 : FE;
  5345 : 01;
  5346 : 00;
  5347 : 00;
  5348 : FC;
  5349 : FE;
  5350 : 01;
  5351 : FC;
  5352 : FC;
  5353 : FE;
  5354 : 00;
  5355 : FD;
  5356 : FF;
  5357 : 02;
  5358 : FD;
  5359 : FC;
  5360 : 00;
  5361 : 01;
  5362 : 02;
  5363 : 02;
  5364 : 01;
  5365 : FF;
  5366 : FF;
  5367 : 02;
  5368 : 02;
  5369 : FF;
  5370 : 02;
  5371 : 00;
  5372 : FD;
  5373 : FC;
  5374 : FF;
  5375 : 01;
  5376 : FD;
  5377 : FE;
  5378 : 02;
  5379 : FE;
  5380 : FD;
  5381 : FD;
  5382 : 01;
  5383 : FE;
  5384 : 02;
  5385 : FC;
  5386 : FF;
  5387 : FF;
  5388 : 02;
  5389 : FD;
  5390 : 03;
  5391 : FD;
  5392 : FE;
  5393 : 01;
  5394 : FC;
  5395 : FF;
  5396 : FD;
  5397 : 02;
  5398 : 01;
  5399 : FC;
  5400 : 01;
  5401 : FE;
  5402 : FC;
  5403 : FE;
  5404 : 01;
  5405 : 01;
  5406 : FD;
  5407 : 01;
  5408 : 03;
  5409 : 01;
  5410 : 00;
  5411 : FE;
  5412 : 00;
  5413 : 01;
  5414 : 03;
  5415 : FE;
  5416 : FE;
  5417 : FE;
  5418 : FD;
  5419 : 01;
  5420 : FF;
  5421 : FF;
  5422 : FF;
  5423 : FF;
  5424 : FF;
  5425 : 02;
  5426 : FE;
  5427 : 01;
  5428 : 01;
  5429 : 00;
  5430 : FF;
  5431 : 00;
  5432 : FD;
  5433 : FE;
  5434 : 03;
  5435 : FD;
  5436 : 01;
  5437 : 00;
  5438 : 01;
  5439 : 03;
  5440 : FD;
  5441 : FC;
  5442 : FE;
  5443 : FF;
  5444 : 01;
  5445 : FD;
  5446 : FD;
  5447 : 03;
  5448 : 00;
  5449 : 01;
  5450 : FE;
  5451 : FE;
  5452 : 00;
  5453 : FE;
  5454 : FF;
  5455 : FF;
  5456 : 03;
  5457 : 02;
  5458 : 03;
  5459 : 01;
  5460 : 00;
  5461 : FD;
  5462 : FF;
  5463 : 03;
  5464 : FF;
  5465 : 03;
  5466 : 01;
  5467 : 03;
  5468 : 01;
  5469 : 00;
  5470 : FF;
  5471 : FE;
  5472 : FF;
  5473 : 00;
  5474 : FD;
  5475 : 02;
  5476 : 00;
  5477 : 02;
  5478 : FD;
  5479 : 01;
  5480 : FC;
  5481 : FF;
  5482 : FF;
  5483 : 01;
  5484 : FD;
  5485 : 02;
  5486 : 03;
  5487 : FD;
  5488 : FF;
  5489 : FF;
  5490 : 00;
  5491 : 01;
  5492 : FE;
  5493 : 00;
  5494 : FE;
  5495 : FD;
  5496 : 03;
  5497 : FD;
  5498 : FF;
  5499 : 03;
  5500 : FE;
  5501 : FE;
  5502 : 02;
  5503 : FE;
  5504 : FF;
  5505 : 00;
  5506 : 02;
  5507 : 00;
  5508 : FD;
  5509 : 02;
  5510 : 03;
  5511 : 01;
  5512 : 00;
  5513 : FF;
  5514 : 02;
  5515 : 00;
  5516 : 00;
  5517 : 02;
  5518 : FE;
  5519 : FE;
  5520 : FD;
  5521 : FE;
  5522 : 02;
  5523 : FE;
  5524 : 03;
  5525 : 03;
  5526 : FE;
  5527 : 02;
  5528 : 01;
  5529 : FE;
  5530 : FD;
  5531 : FF;
  5532 : FF;
  5533 : 03;
  5534 : FE;
  5535 : 03;
  5536 : FF;
  5537 : 03;
  5538 : 00;
  5539 : FD;
  5540 : FD;
  5541 : FC;
  5542 : FF;
  5543 : 02;
  5544 : 01;
  5545 : FD;
  5546 : 00;
  5547 : 01;
  5548 : 01;
  5549 : FD;
  5550 : FF;
  5551 : 01;
  5552 : 00;
  5553 : 03;
  5554 : FE;
  5555 : 00;
  5556 : FF;
  5557 : FD;
  5558 : 01;
  5559 : FF;
  5560 : FE;
  5561 : FF;
  5562 : FD;
  5563 : FF;
  5564 : 03;
  5565 : FE;
  5566 : FE;
  5567 : 00;
  5568 : FF;
  5569 : FE;
  5570 : 03;
  5571 : FD;
  5572 : 01;
  5573 : 02;
  5574 : 02;
  5575 : 03;
  5576 : FD;
  5577 : FD;
  5578 : FF;
  5579 : 00;
  5580 : 00;
  5581 : FC;
  5582 : FC;
  5583 : FE;
  5584 : 00;
  5585 : FF;
  5586 : FD;
  5587 : FD;
  5588 : 00;
  5589 : 00;
  5590 : 01;
  5591 : 02;
  5592 : 01;
  5593 : 01;
  5594 : FE;
  5595 : FD;
  5596 : FC;
  5597 : 01;
  5598 : FC;
  5599 : 01;
  5600 : FD;
  5601 : 00;
  5602 : FC;
  5603 : 00;
  5604 : 01;
  5605 : 01;
  5606 : FC;
  5607 : 02;
  5608 : 02;
  5609 : FE;
  5610 : 01;
  5611 : 03;
  5612 : 02;
  5613 : 02;
  5614 : 00;
  5615 : FD;
  5616 : FF;
  5617 : 02;
  5618 : 02;
  5619 : FF;
  5620 : FD;
  5621 : 00;
  5622 : FF;
  5623 : FF;
  5624 : FC;
  5625 : FD;
  5626 : FE;
  5627 : FE;
  5628 : FF;
  5629 : 02;
  5630 : 01;
  5631 : 00;
  5632 : 01;
  5633 : 01;
  5634 : FF;
  5635 : FD;
  5636 : FE;
  5637 : FD;
  5638 : 01;
  5639 : 00;
  5640 : 01;
  5641 : FD;
  5642 : FF;
  5643 : FC;
  5644 : 02;
  5645 : FE;
  5646 : FD;
  5647 : 00;
  5648 : 01;
  5649 : FD;
  5650 : FE;
  5651 : FF;
  5652 : FD;
  5653 : 01;
  5654 : 01;
  5655 : 00;
  5656 : 00;
  5657 : 01;
  5658 : 02;
  5659 : FF;
  5660 : FF;
  5661 : FD;
  5662 : 00;
  5663 : FF;
  5664 : FC;
  5665 : FC;
  5666 : 02;
  5667 : FC;
  5668 : 02;
  5669 : FD;
  5670 : 02;
  5671 : 00;
  5672 : 01;
  5673 : FD;
  5674 : FE;
  5675 : FD;
  5676 : FD;
  5677 : 01;
  5678 : 01;
  5679 : FE;
  5680 : FD;
  5681 : FF;
  5682 : FF;
  5683 : FF;
  5684 : FE;
  5685 : 02;
  5686 : FE;
  5687 : 00;
  5688 : FF;
  5689 : 00;
  5690 : 00;
  5691 : FD;
  5692 : 01;
  5693 : 02;
  5694 : FD;
  5695 : 00;
  5696 : 01;
  5697 : 01;
  5698 : FE;
  5699 : FD;
  5700 : 01;
  5701 : FD;
  5702 : FD;
  5703 : FD;
  5704 : FE;
  5705 : 02;
  5706 : FD;
  5707 : 00;
  5708 : FF;
  5709 : FD;
  5710 : 02;
  5711 : FE;
  5712 : 02;
  5713 : 02;
  5714 : 02;
  5715 : 00;
  5716 : FF;
  5717 : FE;
  5718 : 01;
  5719 : 02;
  5720 : 01;
  5721 : FF;
  5722 : 02;
  5723 : FF;
  5724 : FC;
  5725 : 01;
  5726 : FC;
  5727 : 01;
  5728 : FC;
  5729 : FC;
  5730 : FE;
  5731 : FD;
  5732 : FD;
  5733 : 00;
  5734 : 01;
  5735 : FC;
  5736 : 01;
  5737 : FD;
  5738 : 02;
  5739 : 02;
  5740 : FE;
  5741 : 01;
  5742 : FD;
  5743 : 00;
  5744 : FE;
  5745 : FE;
  5746 : FE;
  5747 : FE;
  5748 : 01;
  5749 : FF;
  5750 : FF;
  5751 : FF;
  5752 : 00;
  5753 : FE;
  5754 : FF;
  5755 : FC;
  5756 : 02;
  5757 : 00;
  5758 : FC;
  5759 : FE;
  5760 : 01;
  5761 : FC;
  5762 : FC;
  5763 : FF;
  5764 : 01;
  5765 : FF;
  5766 : FC;
  5767 : FD;
  5768 : FC;
  5769 : FD;
  5770 : 03;
  5771 : FF;
  5772 : FF;
  5773 : 02;
  5774 : FD;
  5775 : FE;
  5776 : FE;
  5777 : FC;
  5778 : FC;
  5779 : 02;
  5780 : FC;
  5781 : FF;
  5782 : 02;
  5783 : 00;
  5784 : FF;
  5785 : 02;
  5786 : 01;
  5787 : FC;
  5788 : 00;
  5789 : FE;
  5790 : 02;
  5791 : FE;
  5792 : FE;
  5793 : 02;
  5794 : 02;
  5795 : FF;
  5796 : 02;
  5797 : FC;
  5798 : FE;
  5799 : FE;
  5800 : 02;
  5801 : FF;
  5802 : 01;
  5803 : 02;
  5804 : FE;
  5805 : 01;
  5806 : FD;
  5807 : FF;
  5808 : FF;
  5809 : FC;
  5810 : FF;
  5811 : 03;
  5812 : FF;
  5813 : FF;
  5814 : 03;
  5815 : FF;
  5816 : 02;
  5817 : 03;
  5818 : 02;
  5819 : FD;
  5820 : 02;
  5821 : FC;
  5822 : FD;
  5823 : FF;
  5824 : 02;
  5825 : 02;
  5826 : 02;
  5827 : FC;
  5828 : 02;
  5829 : FF;
  5830 : 00;
  5831 : 00;
  5832 : 00;
  5833 : FE;
  5834 : 03;
  5835 : FE;
  5836 : 00;
  5837 : FC;
  5838 : FD;
  5839 : 01;
  5840 : 02;
  5841 : FE;
  5842 : 01;
  5843 : FF;
  5844 : 00;
  5845 : FE;
  5846 : FF;
  5847 : FE;
  5848 : FF;
  5849 : FD;
  5850 : FE;
  5851 : 01;
  5852 : 01;
  5853 : FD;
  5854 : 00;
  5855 : FC;
  5856 : FD;
  5857 : 00;
  5858 : FD;
  5859 : 00;
  5860 : FD;
  5861 : FF;
  5862 : FC;
  5863 : FD;
  5864 : FF;
  5865 : FD;
  5866 : FD;
  5867 : 01;
  5868 : 00;
  5869 : FF;
  5870 : 02;
  5871 : 01;
  5872 : FE;
  5873 : 01;
  5874 : 00;
  5875 : 01;
  5876 : FD;
  5877 : FC;
  5878 : 03;
  5879 : FF;
  5880 : 02;
  5881 : 01;
  5882 : 03;
  5883 : 01;
  5884 : 00;
  5885 : 00;
  5886 : 01;
  5887 : 01;
  5888 : FD;
  5889 : FF;
  5890 : 00;
  5891 : 03;
  5892 : 02;
  5893 : 01;
  5894 : FC;
  5895 : FC;
  5896 : FD;
  5897 : FE;
  5898 : FC;
  5899 : 00;
  5900 : FF;
  5901 : FF;
  5902 : 00;
  5903 : 01;
  5904 : 01;
  5905 : 03;
  5906 : FD;
  5907 : 02;
  5908 : FD;
  5909 : 00;
  5910 : 00;
  5911 : FC;
  5912 : 00;
  5913 : 01;
  5914 : 01;
  5915 : FE;
  5916 : FD;
  5917 : 00;
  5918 : 03;
  5919 : FE;
  5920 : FF;
  5921 : 00;
  5922 : 02;
  5923 : FD;
  5924 : FF;
  5925 : FC;
  5926 : 02;
  5927 : 00;
  5928 : FE;
  5929 : FD;
  5930 : 01;
  5931 : 01;
  5932 : 02;
  5933 : 00;
  5934 : FE;
  5935 : FC;
  5936 : FD;
  5937 : FE;
  5938 : FF;
  5939 : 01;
  5940 : FF;
  5941 : 01;
  5942 : 01;
  5943 : 02;
  5944 : 00;
  5945 : 03;
  5946 : FF;
  5947 : 01;
  5948 : FE;
  5949 : 02;
  5950 : 01;
  5951 : 02;
  5952 : FF;
  5953 : FF;
  5954 : 00;
  5955 : 00;
  5956 : 00;
  5957 : FD;
  5958 : FC;
  5959 : FE;
  5960 : FF;
  5961 : FE;
  5962 : 00;
  5963 : FF;
  5964 : 02;
  5965 : 02;
  5966 : 03;
  5967 : 00;
  5968 : 03;
  5969 : FD;
  5970 : FD;
  5971 : FF;
  5972 : FC;
  5973 : FF;
  5974 : 02;
  5975 : 02;
  5976 : 01;
  5977 : 00;
  5978 : FF;
  5979 : 03;
  5980 : FF;
  5981 : 02;
  5982 : FC;
  5983 : FD;
  5984 : 00;
  5985 : FF;
  5986 : FD;
  5987 : 00;
  5988 : 01;
  5989 : 01;
  5990 : FC;
  5991 : FF;
  5992 : FE;
  5993 : FD;
  5994 : 01;
  5995 : FC;
  5996 : 01;
  5997 : 01;
  5998 : FF;
  5999 : FE;
  6000 : FE;
  6001 : 00;
  6002 : FF;
  6003 : FF;
  6004 : FE;
  6005 : 03;
  6006 : 01;
  6007 : FD;
  6008 : 00;
  6009 : 01;
  6010 : 00;
  6011 : 02;
  6012 : 03;
  6013 : 02;
  6014 : FD;
  6015 : 00;
  6016 : 01;
  6017 : 02;
  6018 : FD;
  6019 : 01;
  6020 : FD;
  6021 : 02;
  6022 : 00;
  6023 : 04;
  6024 : FE;
  6025 : 02;
  6026 : 02;
  6027 : FE;
  6028 : 02;
  6029 : 00;
  6030 : FF;
  6031 : FD;
  6032 : 02;
  6033 : 00;
  6034 : 02;
  6035 : FF;
  6036 : FE;
  6037 : 02;
  6038 : 01;
  6039 : 02;
  6040 : FD;
  6041 : FE;
  6042 : 02;
  6043 : 02;
  6044 : 02;
  6045 : 00;
  6046 : FF;
  6047 : 00;
  6048 : 00;
  6049 : 01;
  6050 : FF;
  6051 : FC;
  6052 : FD;
  6053 : 01;
  6054 : 01;
  6055 : FF;
  6056 : 02;
  6057 : 03;
  6058 : FF;
  6059 : FD;
  6060 : 03;
  6061 : 02;
  6062 : FE;
  6063 : FE;
  6064 : 00;
  6065 : FF;
  6066 : FF;
  6067 : 02;
  6068 : 00;
  6069 : 02;
  6070 : 02;
  6071 : FE;
  6072 : FD;
  6073 : 03;
  6074 : 03;
  6075 : FE;
  6076 : 01;
  6077 : FE;
  6078 : FD;
  6079 : 03;
  6080 : 01;
  6081 : 01;
  6082 : FF;
  6083 : 01;
  6084 : 02;
  6085 : FC;
  6086 : 00;
  6087 : FD;
  6088 : FE;
  6089 : FC;
  6090 : 00;
  6091 : FE;
  6092 : FE;
  6093 : 02;
  6094 : FE;
  6095 : FF;
  6096 : 00;
  6097 : 00;
  6098 : FF;
  6099 : FF;
  6100 : 02;
  6101 : FE;
  6102 : 01;
  6103 : 01;
  6104 : FF;
  6105 : 02;
  6106 : FC;
  6107 : FD;
  6108 : FE;
  6109 : 00;
  6110 : 00;
  6111 : FD;
  6112 : FE;
  6113 : 00;
  6114 : 01;
  6115 : FC;
  6116 : FD;
  6117 : FC;
  6118 : 01;
  6119 : FD;
  6120 : FC;
  6121 : 01;
  6122 : FD;
  6123 : FC;
  6124 : 02;
  6125 : FD;
  6126 : FD;
  6127 : FF;
  6128 : FE;
  6129 : 01;
  6130 : FE;
  6131 : FD;
  6132 : FE;
  6133 : FE;
  6134 : 01;
  6135 : FE;
  6136 : FF;
  6137 : FD;
  6138 : 00;
  6139 : FD;
  6140 : FF;
  6141 : 02;
  6142 : 01;
  6143 : 00;
  6144 : FF;
  6145 : 00;
  6146 : 03;
  6147 : FC;
  6148 : 02;
  6149 : FD;
  6150 : 01;
  6151 : FC;
  6152 : FC;
  6153 : FE;
  6154 : 01;
  6155 : FE;
  6156 : 01;
  6157 : 00;
  6158 : 02;
  6159 : FE;
  6160 : 01;
  6161 : FF;
  6162 : FE;
  6163 : 01;
  6164 : 02;
  6165 : FF;
  6166 : FD;
  6167 : FC;
  6168 : 01;
  6169 : FF;
  6170 : FE;
  6171 : 01;
  6172 : FE;
  6173 : FC;
  6174 : FC;
  6175 : 00;
  6176 : FC;
  6177 : 00;
  6178 : 00;
  6179 : 02;
  6180 : FD;
  6181 : 03;
  6182 : 02;
  6183 : FC;
  6184 : FC;
  6185 : FC;
  6186 : FC;
  6187 : 00;
  6188 : 02;
  6189 : FD;
  6190 : FE;
  6191 : FE;
  6192 : 02;
  6193 : 00;
  6194 : 00;
  6195 : FF;
  6196 : 01;
  6197 : FE;
  6198 : FD;
  6199 : 01;
  6200 : 01;
  6201 : 01;
  6202 : FD;
  6203 : FE;
  6204 : FD;
  6205 : 00;
  6206 : 02;
  6207 : 00;
  6208 : FD;
  6209 : FE;
  6210 : FC;
  6211 : FE;
  6212 : FF;
  6213 : FD;
  6214 : FD;
  6215 : FE;
  6216 : 02;
  6217 : 02;
  6218 : 02;
  6219 : 00;
  6220 : FD;
  6221 : FD;
  6222 : 00;
  6223 : FF;
  6224 : 00;
  6225 : 01;
  6226 : FD;
  6227 : FF;
  6228 : FC;
  6229 : 00;
  6230 : 01;
  6231 : 00;
  6232 : 02;
  6233 : 03;
  6234 : 01;
  6235 : FC;
  6236 : FD;
  6237 : 00;
  6238 : 01;
  6239 : FC;
  6240 : FF;
  6241 : FC;
  6242 : 02;
  6243 : FC;
  6244 : 00;
  6245 : FF;
  6246 : 01;
  6247 : 02;
  6248 : FE;
  6249 : FC;
  6250 : 01;
  6251 : 00;
  6252 : 02;
  6253 : 03;
  6254 : FE;
  6255 : FD;
  6256 : FC;
  6257 : 02;
  6258 : 00;
  6259 : FD;
  6260 : 01;
  6261 : 00;
  6262 : FF;
  6263 : FE;
  6264 : FC;
  6265 : 00;
  6266 : 01;
  6267 : FC;
  6268 : FF;
  6269 : FF;
  6270 : FE;
  6271 : 01;
  6272 : 02;
  6273 : FD;
  6274 : FC;
  6275 : FE;
  6276 : FF;
  6277 : FF;
  6278 : 01;
  6279 : FE;
  6280 : FD;
  6281 : 03;
  6282 : 03;
  6283 : FC;
  6284 : FF;
  6285 : FE;
  6286 : FE;
  6287 : 03;
  6288 : 01;
  6289 : 01;
  6290 : FF;
  6291 : 01;
  6292 : FC;
  6293 : FD;
  6294 : FF;
  6295 : FD;
  6296 : FD;
  6297 : FD;
  6298 : FC;
  6299 : 00;
  6300 : 01;
  6301 : FD;
  6302 : FF;
  6303 : FD;
  6304 : 02;
  6305 : FE;
  6306 : FF;
  6307 : FC;
  6308 : 01;
  6309 : 02;
  6310 : FF;
  6311 : FF;
  6312 : 01;
  6313 : FC;
  6314 : FD;
  6315 : FE;
  6316 : 01;
  6317 : FD;
  6318 : 00;
  6319 : 00;
  6320 : 02;
  6321 : FC;
  6322 : FD;
  6323 : FE;
  6324 : FF;
  6325 : 00;
  6326 : FD;
  6327 : 01;
  6328 : FD;
  6329 : FC;
  6330 : FC;
  6331 : FD;
  6332 : 02;
  6333 : FE;
  6334 : 02;
  6335 : FE;
  6336 : FC;
  6337 : FE;
  6338 : FC;
  6339 : FE;
  6340 : 02;
  6341 : FE;
  6342 : FC;
  6343 : 01;
  6344 : FD;
  6345 : FC;
  6346 : FF;
  6347 : FF;
  6348 : FE;
  6349 : 03;
  6350 : 02;
  6351 : 00;
  6352 : 02;
  6353 : FC;
  6354 : FC;
  6355 : FC;
  6356 : FF;
  6357 : 02;
  6358 : 02;
  6359 : 03;
  6360 : FC;
  6361 : FD;
  6362 : 00;
  6363 : FC;
  6364 : 00;
  6365 : FE;
  6366 : 02;
  6367 : 00;
  6368 : 02;
  6369 : FF;
  6370 : 02;
  6371 : 02;
  6372 : FD;
  6373 : FC;
  6374 : FC;
  6375 : 02;
  6376 : 00;
  6377 : FE;
  6378 : FC;
  6379 : 01;
  6380 : 01;
  6381 : FC;
  6382 : FE;
  6383 : FE;
  6384 : FC;
  6385 : FE;
  6386 : 01;
  6387 : FD;
  6388 : 01;
  6389 : 01;
  6390 : 00;
  6391 : FE;
  6392 : FD;
  6393 : FD;
  6394 : 00;
  6395 : FD;
  6396 : 00;
  6397 : FE;
  6398 : FC;
  6399 : FD;
  6400 : 00;
  6401 : 03;
  6402 : FC;
  6403 : FD;
  6404 : 01;
  6405 : FF;
  6406 : FE;
  6407 : 01;
  6408 : 01;
  6409 : 02;
  6410 : FD;
  6411 : FE;
  6412 : FF;
  6413 : FE;
  6414 : 00;
  6415 : FD;
  6416 : FD;
  6417 : FF;
  6418 : 01;
  6419 : FE;
  6420 : FF;
  6421 : FE;
  6422 : FE;
  6423 : FF;
  6424 : FE;
  6425 : FF;
  6426 : 03;
  6427 : 00;
  6428 : 00;
  6429 : FD;
  6430 : FE;
  6431 : FF;
  6432 : 01;
  6433 : 00;
  6434 : 01;
  6435 : FE;
  6436 : FF;
  6437 : 01;
  6438 : FE;
  6439 : FF;
  6440 : 02;
  6441 : 03;
  6442 : 00;
  6443 : 02;
  6444 : FE;
  6445 : 00;
  6446 : 01;
  6447 : FF;
  6448 : FF;
  6449 : 02;
  6450 : 00;
  6451 : FD;
  6452 : 02;
  6453 : 00;
  6454 : FD;
  6455 : 01;
  6456 : FE;
  6457 : 01;
  6458 : 00;
  6459 : 01;
  6460 : 00;
  6461 : FD;
  6462 : 03;
  6463 : 03;
  6464 : FF;
  6465 : 02;
  6466 : FF;
  6467 : 00;
  6468 : 02;
  6469 : 02;
  6470 : 00;
  6471 : 00;
  6472 : 02;
  6473 : 00;
  6474 : FE;
  6475 : FD;
  6476 : 02;
  6477 : FD;
  6478 : 00;
  6479 : 02;
  6480 : FF;
  6481 : FF;
  6482 : FE;
  6483 : FF;
  6484 : 01;
  6485 : 00;
  6486 : 02;
  6487 : 03;
  6488 : FE;
  6489 : 00;
  6490 : FC;
  6491 : FF;
  6492 : 01;
  6493 : 00;
  6494 : FF;
  6495 : FC;
  6496 : FC;
  6497 : FD;
  6498 : 00;
  6499 : 02;
  6500 : FE;
  6501 : 01;
  6502 : FF;
  6503 : FF;
  6504 : FD;
  6505 : 02;
  6506 : FF;
  6507 : FC;
  6508 : FD;
  6509 : FF;
  6510 : FC;
  6511 : FF;
  6512 : 03;
  6513 : 01;
  6514 : FF;
  6515 : 02;
  6516 : 02;
  6517 : 00;
  6518 : FC;
  6519 : 02;
  6520 : 01;
  6521 : 02;
  6522 : 00;
  6523 : FD;
  6524 : FD;
  6525 : 01;
  6526 : 02;
  6527 : 00;
  6528 : FC;
  6529 : FD;
  6530 : FE;
  6531 : 01;
  6532 : 02;
  6533 : FE;
  6534 : 03;
  6535 : 02;
  6536 : FE;
  6537 : 01;
  6538 : FF;
  6539 : FE;
  6540 : 02;
  6541 : 03;
  6542 : 00;
  6543 : FD;
  6544 : 00;
  6545 : 01;
  6546 : FD;
  6547 : FF;
  6548 : FF;
  6549 : 02;
  6550 : FE;
  6551 : FF;
  6552 : FE;
  6553 : 02;
  6554 : 00;
  6555 : 03;
  6556 : FF;
  6557 : 00;
  6558 : FE;
  6559 : 02;
  6560 : FE;
  6561 : FF;
  6562 : FF;
  6563 : 00;
  6564 : 02;
  6565 : 01;
  6566 : FF;
  6567 : FD;
  6568 : 01;
  6569 : FC;
  6570 : FF;
  6571 : FD;
  6572 : 00;
  6573 : 01;
  6574 : 02;
  6575 : 02;
  6576 : 01;
  6577 : 00;
  6578 : 00;
  6579 : 03;
  6580 : 02;
  6581 : FD;
  6582 : 00;
  6583 : 02;
  6584 : 01;
  6585 : 00;
  6586 : FE;
  6587 : FF;
  6588 : FE;
  6589 : 01;
  6590 : 03;
  6591 : FC;
  6592 : 03;
  6593 : FF;
  6594 : FD;
  6595 : FF;
  6596 : 02;
  6597 : 03;
  6598 : FF;
  6599 : 00;
  6600 : FC;
  6601 : 02;
  6602 : 03;
  6603 : 00;
  6604 : FE;
  6605 : FE;
  6606 : FC;
  6607 : FD;
  6608 : 00;
  6609 : FF;
  6610 : 00;
  6611 : 02;
  6612 : FC;
  6613 : FF;
  6614 : FD;
  6615 : 00;
  6616 : FC;
  6617 : 02;
  6618 : FD;
  6619 : 01;
  6620 : 02;
  6621 : FD;
  6622 : FF;
  6623 : 02;
  6624 : FC;
  6625 : 01;
  6626 : FF;
  6627 : 00;
  6628 : FE;
  6629 : FC;
  6630 : FD;
  6631 : FE;
  6632 : FE;
  6633 : 03;
  6634 : 01;
  6635 : FC;
  6636 : FC;
  6637 : FF;
  6638 : FE;
  6639 : 01;
  6640 : FD;
  6641 : 03;
  6642 : FC;
  6643 : 01;
  6644 : FE;
  6645 : 00;
  6646 : FC;
  6647 : FF;
  6648 : FC;
  6649 : 04;
  6650 : FE;
  6651 : FF;
  6652 : FC;
  6653 : FE;
  6654 : 00;
  6655 : 00;
  6656 : 01;
  6657 : 00;
  6658 : FC;
  6659 : 00;
  6660 : FC;
  6661 : 01;
  6662 : FC;
  6663 : 00;
  6664 : FE;
  6665 : FE;
  6666 : 01;
  6667 : 00;
  6668 : 01;
  6669 : 01;
  6670 : 02;
  6671 : 01;
  6672 : 01;
  6673 : 00;
  6674 : 01;
  6675 : FE;
  6676 : FD;
  6677 : FD;
  6678 : FC;
  6679 : FD;
  6680 : 02;
  6681 : 02;
  6682 : FD;
  6683 : 02;
  6684 : 01;
  6685 : 01;
  6686 : 00;
  6687 : FF;
  6688 : FE;
  6689 : 02;
  6690 : FC;
  6691 : 01;
  6692 : FE;
  6693 : 00;
  6694 : 02;
  6695 : FE;
  6696 : FD;
  6697 : 02;
  6698 : FD;
  6699 : FD;
  6700 : FD;
  6701 : FC;
  6702 : 00;
  6703 : FF;
  6704 : 00;
  6705 : FF;
  6706 : 01;
  6707 : 01;
  6708 : FE;
  6709 : 02;
  6710 : FF;
  6711 : 00;
  6712 : 00;
  6713 : FF;
  6714 : FE;
  6715 : FF;
  6716 : 01;
  6717 : 01;
  6718 : 02;
  6719 : FE;
  6720 : FE;
  6721 : FD;
  6722 : FF;
  6723 : 02;
  6724 : FC;
  6725 : 04;
  6726 : 03;
  6727 : FD;
  6728 : FF;
  6729 : FE;
  6730 : 00;
  6731 : FF;
  6732 : FC;
  6733 : FF;
  6734 : FE;
  6735 : FD;
  6736 : 02;
  6737 : FF;
  6738 : 01;
  6739 : 01;
  6740 : FF;
  6741 : FF;
  6742 : FF;
  6743 : FF;
  6744 : 01;
  6745 : 00;
  6746 : FD;
  6747 : 02;
  6748 : FD;
  6749 : FE;
  6750 : FC;
  6751 : 02;
  6752 : 02;
  6753 : FC;
  6754 : 02;
  6755 : FC;
  6756 : FD;
  6757 : 00;
  6758 : 00;
  6759 : 03;
  6760 : F5;
  6761 : ED;
  6762 : F8;
  6763 : EF;
  6764 : F6;
  6765 : F6;
  6766 : 06;
  6767 : 04;
  6768 : F3;
  6769 : F5;
  6770 : 01;
  6771 : 02;
  6772 : FD;
  6773 : 0F;
  6774 : FE;
  6775 : FB;
  6776 : F5;
  6777 : 02;
  6778 : F8;
  6779 : FA;
  6780 : FD;
  6781 : F3;
  6782 : FC;
  6783 : 08;
  6784 : 04;
  6785 : 04;
  6786 : F5;
  6787 : F8;
  6788 : FD;
  6789 : F4;
  6790 : F7;
  6791 : F6;
  6792 : E1;
  6793 : E7;
  6794 : E1;
  6795 : E2;
  6796 : F4;
  6797 : FA;
  6798 : 13;
  6799 : F6;
  6800 : F5;
  6801 : F9;
  6802 : F4;
  6803 : F5;
  6804 : E6;
  6805 : CF;
  6806 : C9;
  6807 : CC;
  6808 : DD;
  6809 : ED;
  6810 : F9;
  6811 : 04;
  6812 : EA;
  6813 : E6;
  6814 : F0;
  6815 : F8;
  6816 : EE;
  6817 : D2;
  6818 : B6;
  6819 : B6;
  6820 : C4;
  6821 : DD;
  6822 : EB;
  6823 : F6;
  6824 : E1;
  6825 : F6;
  6826 : EA;
  6827 : FB;
  6828 : F6;
  6829 : F8;
  6830 : F7;
  6831 : FC;
  6832 : DD;
  6833 : D7;
  6834 : DE;
  6835 : 06;
  6836 : 04;
  6837 : F4;
  6838 : 18;
  6839 : 04;
  6840 : F8;
  6841 : FD;
  6842 : 03;
  6843 : 02;
  6844 : 03;
  6845 : DA;
  6846 : DC;
  6847 : EF;
  6848 : FD;
  6849 : 0F;
  6850 : FB;
  6851 : 0C;
  6852 : 02;
  6853 : 06;
  6854 : FE;
  6855 : 04;
  6856 : 09;
  6857 : 01;
  6858 : E3;
  6859 : EC;
  6860 : 07;
  6861 : 1B;
  6862 : 1B;
  6863 : FD;
  6864 : 0B;
  6865 : 15;
  6866 : FE;
  6867 : FD;
  6868 : F5;
  6869 : F4;
  6870 : FC;
  6871 : 04;
  6872 : 10;
  6873 : 29;
  6874 : 2B;
  6875 : 2B;
  6876 : 21;
  6877 : FC;
  6878 : F7;
  6879 : 00;
  6880 : 11;
  6881 : 00;
  6882 : E7;
  6883 : D6;
  6884 : FF;
  6885 : 24;
  6886 : 37;
  6887 : 3E;
  6888 : 20;
  6889 : 00;
  6890 : EE;
  6891 : 0A;
  6892 : 02;
  6893 : 13;
  6894 : FC;
  6895 : D6;
  6896 : C6;
  6897 : BE;
  6898 : FB;
  6899 : 28;
  6900 : 4E;
  6901 : 3B;
  6902 : FD;
  6903 : FB;
  6904 : EA;
  6905 : E4;
  6906 : D0;
  6907 : D7;
  6908 : D5;
  6909 : D2;
  6910 : E3;
  6911 : 11;
  6912 : 0A;
  6913 : 1E;
  6914 : 15;
  6915 : EE;
  6916 : 1D;
  6917 : 05;
  6918 : 04;
  6919 : FC;
  6920 : EB;
  6921 : F5;
  6922 : DC;
  6923 : ED;
  6924 : 08;
  6925 : DA;
  6926 : E5;
  6927 : 0C;
  6928 : 05;
  6929 : 00;
  6930 : FD;
  6931 : 01;
  6932 : FD;
  6933 : 00;
  6934 : FD;
  6935 : 0D;
  6936 : 09;
  6937 : 07;
  6938 : 00;
  6939 : 03;
  6940 : 01;
  6941 : 02;
  6942 : FF;
  6943 : 03;
  6944 : FC;
  6945 : 02;
  6946 : 00;
  6947 : FD;
  6948 : 02;
  6949 : 06;
  6950 : 01;
  6951 : 08;
  6952 : 0C;
  6953 : 03;
  6954 : 04;
  6955 : 03;
  6956 : FE;
  6957 : F6;
  6958 : FD;
  6959 : F4;
  6960 : FB;
  6961 : FA;
  6962 : F9;
  6963 : FC;
  6964 : 04;
  6965 : 0B;
  6966 : FC;
  6967 : 03;
  6968 : 02;
  6969 : 00;
  6970 : FE;
  6971 : F7;
  6972 : FF;
  6973 : 02;
  6974 : 04;
  6975 : F8;
  6976 : F7;
  6977 : FE;
  6978 : 07;
  6979 : FF;
  6980 : 04;
  6981 : 00;
  6982 : F7;
  6983 : FB;
  6984 : FA;
  6985 : 07;
  6986 : 0A;
  6987 : 05;
  6988 : FB;
  6989 : 03;
  6990 : 04;
  6991 : FC;
  6992 : FA;
  6993 : FB;
  6994 : 00;
  6995 : FD;
  6996 : FE;
  6997 : 04;
  6998 : 04;
  6999 : 0A;
  7000 : F6;
  7001 : F9;
  7002 : 0A;
  7003 : 02;
  7004 : F9;
  7005 : F4;
  7006 : F5;
  7007 : 01;
  7008 : 0B;
  7009 : 07;
  7010 : 0B;
  7011 : 0D;
  7012 : 01;
  7013 : FB;
  7014 : 07;
  7015 : 0E;
  7016 : 00;
  7017 : FB;
  7018 : FA;
  7019 : 02;
  7020 : 07;
  7021 : 10;
  7022 : 11;
  7023 : 10;
  7024 : 01;
  7025 : F5;
  7026 : 00;
  7027 : 0D;
  7028 : 05;
  7029 : FB;
  7030 : 00;
  7031 : FC;
  7032 : FE;
  7033 : 04;
  7034 : 0C;
  7035 : 10;
  7036 : 08;
  7037 : F3;
  7038 : F0;
  7039 : FF;
  7040 : 00;
  7041 : 00;
  7042 : FF;
  7043 : 00;
  7044 : FC;
  7045 : 09;
  7046 : 03;
  7047 : 0C;
  7048 : 06;
  7049 : 06;
  7050 : F6;
  7051 : F4;
  7052 : 04;
  7053 : 01;
  7054 : 0D;
  7055 : 09;
  7056 : 03;
  7057 : 08;
  7058 : 02;
  7059 : 02;
  7060 : 05;
  7061 : 02;
  7062 : 02;
  7063 : FC;
  7064 : F8;
  7065 : FE;
  7066 : 03;
  7067 : 0C;
  7068 : 07;
  7069 : 0E;
  7070 : 00;
  7071 : FF;
  7072 : FE;
  7073 : 01;
  7074 : FA;
  7075 : FD;
  7076 : FB;
  7077 : FE;
  7078 : F9;
  7079 : FE;
  7080 : 03;
  7081 : 05;
  7082 : 0C;
  7083 : 00;
  7084 : FB;
  7085 : 03;
  7086 : 02;
  7087 : 00;
  7088 : 04;
  7089 : 01;
  7090 : 03;
  7091 : FE;
  7092 : FC;
  7093 : F7;
  7094 : F1;
  7095 : F5;
  7096 : FB;
  7097 : 02;
  7098 : FD;
  7099 : FC;
  7100 : 00;
  7101 : 01;
  7102 : 00;
  7103 : 00;
  7104 : 07;
  7105 : 01;
  7106 : FB;
  7107 : FE;
  7108 : 03;
  7109 : FF;
  7110 : 02;
  7111 : 02;
  7112 : FD;
  7113 : 01;
  7114 : FA;
  7115 : 02;
  7116 : FD;
  7117 : 06;
  7118 : 00;
  7119 : F9;
  7120 : FE;
  7121 : 02;
  7122 : 02;
  7123 : FD;
  7124 : 02;
  7125 : FE;
  7126 : FA;
  7127 : FB;
  7128 : FC;
  7129 : 04;
  7130 : FF;
  7131 : 04;
  7132 : F9;
  7133 : FF;
  7134 : 07;
  7135 : FE;
  7136 : 00;
  7137 : FC;
  7138 : 01;
  7139 : FF;
  7140 : F9;
  7141 : 01;
  7142 : 06;
  7143 : FE;
  7144 : 04;
  7145 : FB;
  7146 : FC;
  7147 : 02;
  7148 : FE;
  7149 : 03;
  7150 : FE;
  7151 : FA;
  7152 : FE;
  7153 : FE;
  7154 : 04;
  7155 : 0A;
  7156 : 02;
  7157 : 03;
  7158 : 07;
  7159 : 01;
  7160 : FD;
  7161 : F8;
  7162 : 02;
  7163 : FE;
  7164 : 03;
  7165 : FD;
  7166 : 07;
  7167 : 06;
  7168 : 08;
  7169 : 00;
  7170 : FE;
  7171 : 08;
  7172 : FE;
  7173 : F6;
  7174 : F3;
  7175 : F9;
  7176 : 02;
  7177 : 06;
  7178 : 0A;
  7179 : 0C;
  7180 : 0A;
  7181 : 08;
  7182 : FC;
  7183 : 0C;
  7184 : 0C;
  7185 : 01;
  7186 : F9;
  7187 : FA;
  7188 : FB;
  7189 : 02;
  7190 : 0F;
  7191 : 0F;
  7192 : 0A;
  7193 : FE;
  7194 : F8;
  7195 : 04;
  7196 : 0A;
  7197 : 06;
  7198 : FB;
  7199 : FB;
  7200 : FF;
  7201 : FB;
  7202 : 02;
  7203 : 0C;
  7204 : 12;
  7205 : 08;
  7206 : F2;
  7207 : F2;
  7208 : 03;
  7209 : 0A;
  7210 : FC;
  7211 : FF;
  7212 : FE;
  7213 : FB;
  7214 : FF;
  7215 : FE;
  7216 : 06;
  7217 : 04;
  7218 : 01;
  7219 : F7;
  7220 : F8;
  7221 : 04;
  7222 : 08;
  7223 : 06;
  7224 : 08;
  7225 : 08;
  7226 : 00;
  7227 : 03;
  7228 : FE;
  7229 : FF;
  7230 : 02;
  7231 : FD;
  7232 : FB;
  7233 : F3;
  7234 : FD;
  7235 : 0B;
  7236 : 0D;
  7237 : 0A;
  7238 : 12;
  7239 : 06;
  7240 : FE;
  7241 : 03;
  7242 : FD;
  7243 : FD;
  7244 : FE;
  7245 : FD;
  7246 : F6;
  7247 : 01;
  7248 : 04;
  7249 : 07;
  7250 : 05;
  7251 : 0C;
  7252 : FE;
  7253 : FD;
  7254 : 01;
  7255 : FF;
  7256 : 00;
  7257 : 00;
  7258 : 04;
  7259 : 07;
  7260 : 00;
  7261 : 00;
  7262 : F9;
  7263 : FD;
  7264 : F9;
  7265 : FE;
  7266 : FE;
  7267 : F1;
  7268 : F3;
  7269 : F8;
  7270 : F4;
  7271 : F7;
  7272 : 02;
  7273 : 0A;
  7274 : 04;
  7275 : F4;
  7276 : F8;
  7277 : FB;
  7278 : 04;
  7279 : FC;
  7280 : FE;
  7281 : 00;
  7282 : FB;
  7283 : FD;
  7284 : F9;
  7285 : F8;
  7286 : 02;
  7287 : 03;
  7288 : 06;
  7289 : 02;
  7290 : 0A;
  7291 : 03;
  7292 : 0A;
  7293 : F0;
  7294 : FF;
  7295 : F3;
  7296 : F4;
  7297 : F4;
  7298 : FD;
  7299 : F5;
  7300 : F0;
  7301 : FC;
  7302 : 0E;
  7303 : 0E;
  7304 : 07;
  7305 : 02;
  7306 : F8;
  7307 : F5;
  7308 : F6;
  7309 : F0;
  7310 : FF;
  7311 : 06;
  7312 : F7;
  7313 : F4;
  7314 : 09;
  7315 : 21;
  7316 : 20;
  7317 : 16;
  7318 : 12;
  7319 : F4;
  7320 : F5;
  7321 : F4;
  7322 : 02;
  7323 : 06;
  7324 : 07;
  7325 : ED;
  7326 : F6;
  7327 : F7;
  7328 : 0D;
  7329 : 04;
  7330 : 02;
  7331 : F7;
  7332 : FB;
  7333 : 09;
  7334 : 07;
  7335 : 07;
  7336 : 08;
  7337 : 05;
  7338 : F9;
  7339 : 03;
  7340 : FD;
  7341 : 0D;
  7342 : 1F;
  7343 : 0E;
  7344 : 02;
  7345 : 12;
  7346 : 18;
  7347 : 08;
  7348 : 11;
  7349 : FE;
  7350 : FA;
  7351 : F9;
  7352 : 07;
  7353 : FF;
  7354 : 0B;
  7355 : 05;
  7356 : 0F;
  7357 : 1A;
  7358 : 1A;
  7359 : 07;
  7360 : 12;
  7361 : 0B;
  7362 : FA;
  7363 : 04;
  7364 : 0D;
  7365 : FD;
  7366 : F5;
  7367 : 22;
  7368 : 15;
  7369 : 17;
  7370 : 0D;
  7371 : 10;
  7372 : 0C;
  7373 : 13;
  7374 : 0D;
  7375 : FB;
  7376 : 00;
  7377 : 0F;
  7378 : 01;
  7379 : 0D;
  7380 : 21;
  7381 : 0F;
  7382 : 35;
  7383 : 2A;
  7384 : 06;
  7385 : 09;
  7386 : 06;
  7387 : 23;
  7388 : 17;
  7389 : 1B;
  7390 : FF;
  7391 : F5;
  7392 : FE;
  7393 : F0;
  7394 : FC;
  7395 : 29;
  7396 : FC;
  7397 : 02;
  7398 : 04;
  7399 : 09;
  7400 : 28;
  7401 : 18;
  7402 : 09;
  7403 : FE;
  7404 : DE;
  7405 : CD;
  7406 : E0;
  7407 : 0A;
  7408 : 0B;
  7409 : 09;
  7410 : F5;
  7411 : EF;
  7412 : 04;
  7413 : 01;
  7414 : 04;
  7415 : 09;
  7416 : F5;
  7417 : D2;
  7418 : DC;
  7419 : CE;
  7420 : FD;
  7421 : 0E;
  7422 : 24;
  7423 : F4;
  7424 : EB;
  7425 : E9;
  7426 : F9;
  7427 : F0;
  7428 : EB;
  7429 : F5;
  7430 : E7;
  7431 : C7;
  7432 : D9;
  7433 : E8;
  7434 : 12;
  7435 : 00;
  7436 : 04;
  7437 : 00;
  7438 : 01;
  7439 : FD;
  7440 : FB;
  7441 : FC;
  7442 : 08;
  7443 : 00;
  7444 : F8;
  7445 : FF;
  7446 : 00;
  7447 : 01;
  7448 : FF;
  7449 : 03;
  7450 : 03;
  7451 : F9;
  7452 : F9;
  7453 : 05;
  7454 : F1;
  7455 : 05;
  7456 : FE;
  7457 : FD;
  7458 : 00;
  7459 : 09;
  7460 : 00;
  7461 : 02;
  7462 : FF;
  7463 : FE;
  7464 : FE;
  7465 : FF;
  7466 : 05;
  7467 : 06;
  7468 : 03;
  7469 : FE;
  7470 : F5;
  7471 : 00;
  7472 : 0A;
  7473 : 02;
  7474 : 05;
  7475 : 03;
  7476 : 03;
  7477 : 01;
  7478 : 05;
  7479 : 0B;
  7480 : 10;
  7481 : 0A;
  7482 : 04;
  7483 : F7;
  7484 : FC;
  7485 : 00;
  7486 : F7;
  7487 : 02;
  7488 : FE;
  7489 : 00;
  7490 : 00;
  7491 : 0A;
  7492 : 0A;
  7493 : 09;
  7494 : 05;
  7495 : 04;
  7496 : 03;
  7497 : FC;
  7498 : FE;
  7499 : F0;
  7500 : 03;
  7501 : 02;
  7502 : FE;
  7503 : 03;
  7504 : 05;
  7505 : 05;
  7506 : 0E;
  7507 : 05;
  7508 : 0B;
  7509 : 0D;
  7510 : 06;
  7511 : F9;
  7512 : F7;
  7513 : FD;
  7514 : 05;
  7515 : 0B;
  7516 : 08;
  7517 : 0A;
  7518 : 05;
  7519 : 0C;
  7520 : 03;
  7521 : 0A;
  7522 : 10;
  7523 : FC;
  7524 : F8;
  7525 : F9;
  7526 : FE;
  7527 : 00;
  7528 : 0E;
  7529 : 05;
  7530 : 02;
  7531 : F8;
  7532 : F5;
  7533 : FE;
  7534 : 0A;
  7535 : 08;
  7536 : 01;
  7537 : FC;
  7538 : F6;
  7539 : FE;
  7540 : FF;
  7541 : 05;
  7542 : 03;
  7543 : FC;
  7544 : F5;
  7545 : F2;
  7546 : FE;
  7547 : 09;
  7548 : 08;
  7549 : 04;
  7550 : 04;
  7551 : 00;
  7552 : 04;
  7553 : FD;
  7554 : 01;
  7555 : 07;
  7556 : 01;
  7557 : F9;
  7558 : ED;
  7559 : 00;
  7560 : 12;
  7561 : 10;
  7562 : 11;
  7563 : 0A;
  7564 : FF;
  7565 : 05;
  7566 : FC;
  7567 : 00;
  7568 : 01;
  7569 : 02;
  7570 : F4;
  7571 : F1;
  7572 : F9;
  7573 : 09;
  7574 : 18;
  7575 : 13;
  7576 : 17;
  7577 : 02;
  7578 : F9;
  7579 : 02;
  7580 : FE;
  7581 : FA;
  7582 : 0D;
  7583 : 06;
  7584 : 05;
  7585 : 11;
  7586 : 0F;
  7587 : 12;
  7588 : 0A;
  7589 : 0F;
  7590 : 01;
  7591 : 02;
  7592 : 03;
  7593 : 04;
  7594 : 00;
  7595 : 05;
  7596 : 0C;
  7597 : 04;
  7598 : 02;
  7599 : 0B;
  7600 : 02;
  7601 : F6;
  7602 : 02;
  7603 : 03;
  7604 : 01;
  7605 : FD;
  7606 : 00;
  7607 : FC;
  7608 : FC;
  7609 : F9;
  7610 : 08;
  7611 : 0C;
  7612 : 03;
  7613 : F9;
  7614 : 0E;
  7615 : 09;
  7616 : FE;
  7617 : FF;
  7618 : FF;
  7619 : FB;
  7620 : FC;
  7621 : FE;
  7622 : F7;
  7623 : FD;
  7624 : 05;
  7625 : F5;
  7626 : FC;
  7627 : FF;
  7628 : 03;
  7629 : 06;
  7630 : 00;
  7631 : 01;
  7632 : FE;
  7633 : FC;
  7634 : FA;
  7635 : FE;
  7636 : FA;
  7637 : F6;
  7638 : F3;
  7639 : F2;
  7640 : FE;
  7641 : 02;
  7642 : 05;
  7643 : 05;
  7644 : 01;
  7645 : FF;
  7646 : FB;
  7647 : FE;
  7648 : 04;
  7649 : 09;
  7650 : FA;
  7651 : FC;
  7652 : F4;
  7653 : F5;
  7654 : FF;
  7655 : FF;
  7656 : 0E;
  7657 : 00;
  7658 : FC;
  7659 : F8;
  7660 : 02;
  7661 : 01;
  7662 : 04;
  7663 : FD;
  7664 : 04;
  7665 : 01;
  7666 : FB;
  7667 : F7;
  7668 : F2;
  7669 : FF;
  7670 : 02;
  7671 : 04;
  7672 : 04;
  7673 : 02;
  7674 : 0B;
  7675 : 06;
  7676 : FB;
  7677 : FF;
  7678 : 02;
  7679 : FC;
  7680 : F2;
  7681 : EE;
  7682 : F2;
  7683 : 10;
  7684 : 0E;
  7685 : 0F;
  7686 : 0E;
  7687 : 03;
  7688 : 04;
  7689 : 07;
  7690 : 07;
  7691 : 03;
  7692 : FD;
  7693 : 01;
  7694 : F8;
  7695 : 00;
  7696 : 0C;
  7697 : 13;
  7698 : 16;
  7699 : 07;
  7700 : FC;
  7701 : F5;
  7702 : 06;
  7703 : 0B;
  7704 : 07;
  7705 : FA;
  7706 : FA;
  7707 : FC;
  7708 : F7;
  7709 : 0F;
  7710 : 10;
  7711 : 0A;
  7712 : 04;
  7713 : F1;
  7714 : ED;
  7715 : FF;
  7716 : 09;
  7717 : FE;
  7718 : 02;
  7719 : 02;
  7720 : 05;
  7721 : 00;
  7722 : 09;
  7723 : 03;
  7724 : 02;
  7725 : 02;
  7726 : F7;
  7727 : F4;
  7728 : 05;
  7729 : 0D;
  7730 : 0D;
  7731 : 0A;
  7732 : 0B;
  7733 : 02;
  7734 : 08;
  7735 : FE;
  7736 : FE;
  7737 : FC;
  7738 : FE;
  7739 : F1;
  7740 : F0;
  7741 : FC;
  7742 : 0C;
  7743 : 12;
  7744 : 18;
  7745 : 15;
  7746 : 0A;
  7747 : 00;
  7748 : FF;
  7749 : FC;
  7750 : 01;
  7751 : FB;
  7752 : FF;
  7753 : FA;
  7754 : FE;
  7755 : 02;
  7756 : 06;
  7757 : 0D;
  7758 : 0D;
  7759 : 02;
  7760 : F5;
  7761 : 00;
  7762 : FE;
  7763 : F9;
  7764 : FD;
  7765 : 03;
  7766 : 01;
  7767 : 00;
  7768 : 03;
  7769 : F4;
  7770 : F5;
