DEPTH = 100352;
WIDTH = 8;
ADDRESS_RADIX = UNS;
DATA_RADIX = HEX;
CONTENT BEGIN
  0 : 08;
  1 : 06;
  2 : 00;
  3 : FF;
  4 : FD;
  5 : 0B;
  6 : FA;
  7 : 02;
  8 : 0A;
  9 : FA;
  10 : 03;
  11 : 0B;
  12 : 0A;
  13 : 06;
  14 : 03;
  15 : 02;
  16 : 0C;
  17 : 08;
  18 : 00;
  19 : 01;
  20 : F6;
  21 : 00;
  22 : 00;
  23 : FC;
  24 : FA;
  25 : 07;
  26 : 07;
  27 : 02;
  28 : FD;
  29 : 08;
  30 : 09;
  31 : FF;
  32 : 06;
  33 : FE;
  34 : 06;
  35 : 01;
  36 : 07;
  37 : FC;
  38 : 0A;
  39 : FF;
  40 : 00;
  41 : FF;
  42 : F5;
  43 : 06;
  44 : 08;
  45 : 02;
  46 : 07;
  47 : 03;
  48 : 08;
  49 : FA;
  50 : 06;
  51 : FF;
  52 : 04;
  53 : 06;
  54 : FE;
  55 : 04;
  56 : 02;
  57 : FE;
  58 : 00;
  59 : 01;
  60 : F7;
  61 : 04;
  62 : 01;
  63 : 06;
  64 : 05;
  65 : 06;
  66 : 03;
  67 : 02;
  68 : 03;
  69 : 07;
  70 : FE;
  71 : 09;
  72 : 03;
  73 : 01;
  74 : 0A;
  75 : 04;
  76 : 09;
  77 : FC;
  78 : FE;
  79 : 04;
  80 : FE;
  81 : FA;
  82 : FE;
  83 : 06;
  84 : F5;
  85 : 07;
  86 : FE;
  87 : 04;
  88 : FA;
  89 : FA;
  90 : 01;
  91 : 00;
  92 : 06;
  93 : 06;
  94 : 07;
  95 : 06;
  96 : 04;
  97 : FE;
  98 : FD;
  99 : 08;
  100 : FC;
  101 : FE;
  102 : 0D;
  103 : 02;
  104 : 00;
  105 : FC;
  106 : FA;
  107 : FB;
  108 : 08;
  109 : FE;
  110 : 04;
  111 : FB;
  112 : FE;
  113 : FD;
  114 : 06;
  115 : 03;
  116 : FA;
  117 : 04;
  118 : FE;
  119 : FD;
  120 : 01;
  121 : FB;
  122 : FA;
  123 : 04;
  124 : 01;
  125 : 07;
  126 : 04;
  127 : 02;
  128 : 08;
  129 : FC;
  130 : 0A;
  131 : 06;
  132 : 09;
  133 : 09;
  134 : FE;
  135 : FA;
  136 : 0B;
  137 : FB;
  138 : 03;
  139 : 09;
  140 : 09;
  141 : FD;
  142 : F6;
  143 : 0E;
  144 : 06;
  145 : FA;
  146 : 06;
  147 : FE;
  148 : F1;
  149 : 02;
  150 : 05;
  151 : 04;
  152 : FC;
  153 : 0A;
  154 : FE;
  155 : 04;
  156 : FB;
  157 : FC;
  158 : 08;
  159 : FA;
  160 : FF;
  161 : 07;
  162 : 03;
  163 : 01;
  164 : 07;
  165 : 00;
  166 : 0D;
  167 : FF;
  168 : 00;
  169 : F9;
  170 : F8;
  171 : FB;
  172 : 0A;
  173 : 0A;
  174 : FC;
  175 : 01;
  176 : 03;
  177 : 07;
  178 : 05;
  179 : 05;
  180 : 00;
  181 : 05;
  182 : 07;
  183 : 07;
  184 : F7;
  185 : 03;
  186 : FC;
  187 : 02;
  188 : FD;
  189 : 06;
  190 : F6;
  191 : 0F;
  192 : FA;
  193 : FB;
  194 : 02;
  195 : 01;
  196 : 02;
  197 : 07;
  198 : 00;
  199 : 05;
  200 : 07;
  201 : 06;
  202 : FB;
  203 : 01;
  204 : 03;
  205 : 03;
  206 : F8;
  207 : 0C;
  208 : 06;
  209 : 00;
  210 : 00;
  211 : FB;
  212 : FA;
  213 : 00;
  214 : 05;
  215 : 01;
  216 : FD;
  217 : FD;
  218 : 06;
  219 : 01;
  220 : FE;
  221 : 00;
  222 : 02;
  223 : F8;
  224 : 08;
  225 : 06;
  226 : 01;
  227 : FB;
  228 : FD;
  229 : FB;
  230 : 06;
  231 : 05;
  232 : 02;
  233 : FD;
  234 : F9;
  235 : 05;
  236 : 00;
  237 : 03;
  238 : 03;
  239 : 00;
  240 : 03;
  241 : 08;
  242 : 07;
  243 : FF;
  244 : FB;
  245 : 03;
  246 : 09;
  247 : F8;
  248 : 06;
  249 : FE;
  250 : F9;
  251 : F9;
  252 : 07;
  253 : FB;
  254 : 06;
  255 : 03;
  256 : 06;
  257 : F9;
  258 : 07;
  259 : FC;
  260 : 09;
  261 : 13;
  262 : F6;
  263 : 03;
  264 : 09;
  265 : 06;
  266 : 06;
  267 : 0C;
  268 : 03;
  269 : FA;
  270 : F5;
  271 : 0F;
  272 : 0C;
  273 : 07;
  274 : 15;
  275 : F5;
  276 : EF;
  277 : 18;
  278 : FE;
  279 : 00;
  280 : EA;
  281 : 04;
  282 : 05;
  283 : 0A;
  284 : FF;
  285 : FB;
  286 : 01;
  287 : F8;
  288 : F9;
  289 : F9;
  290 : 01;
  291 : 08;
  292 : FC;
  293 : 06;
  294 : 05;
  295 : FE;
  296 : 08;
  297 : 04;
  298 : F5;
  299 : 06;
  300 : FC;
  301 : 0A;
  302 : 02;
  303 : 05;
  304 : 0F;
  305 : 02;
  306 : FE;
  307 : 02;
  308 : F8;
  309 : FE;
  310 : 13;
  311 : FB;
  312 : FC;
  313 : 06;
  314 : 05;
  315 : 00;
  316 : F6;
  317 : 07;
  318 : 03;
  319 : 04;
  320 : FC;
  321 : 08;
  322 : FD;
  323 : FD;
  324 : 06;
  325 : 06;
  326 : FC;
  327 : 03;
  328 : 02;
  329 : 03;
  330 : FC;
  331 : 0A;
  332 : 01;
  333 : FB;
  334 : 04;
  335 : 0C;
  336 : 08;
  337 : 07;
  338 : 09;
  339 : FE;
  340 : F7;
  341 : FD;
  342 : 01;
  343 : 01;
  344 : 05;
  345 : FA;
  346 : F8;
  347 : 07;
  348 : 02;
  349 : FF;
  350 : FD;
  351 : F8;
  352 : FE;
  353 : FB;
  354 : 04;
  355 : 06;
  356 : FF;
  357 : 08;
  358 : 04;
  359 : FB;
  360 : 09;
  361 : 06;
  362 : F6;
  363 : 00;
  364 : 00;
  365 : 09;
  366 : FA;
  367 : 06;
  368 : 0B;
  369 : FD;
  370 : FC;
  371 : 08;
  372 : FA;
  373 : 03;
  374 : 0B;
  375 : F9;
  376 : 00;
  377 : 01;
  378 : 03;
  379 : 06;
  380 : 01;
  381 : F9;
  382 : 00;
  383 : 07;
  384 : 06;
  385 : FC;
  386 : 05;
  387 : FC;
  388 : 04;
  389 : 0A;
  390 : 01;
  391 : FA;
  392 : 09;
  393 : 03;
  394 : 00;
  395 : 0C;
  396 : 0B;
  397 : FC;
  398 : F8;
  399 : 08;
  400 : 06;
  401 : 09;
  402 : 05;
  403 : 04;
  404 : F8;
  405 : 05;
  406 : FD;
  407 : 00;
  408 : F8;
  409 : 04;
  410 : 00;
  411 : 03;
  412 : 01;
  413 : 06;
  414 : 02;
  415 : FC;
  416 : 03;
  417 : 03;
  418 : F9;
  419 : 00;
  420 : FD;
  421 : FB;
  422 : 06;
  423 : 05;
  424 : FF;
  425 : FB;
  426 : FA;
  427 : 05;
  428 : 05;
  429 : 01;
  430 : FE;
  431 : FC;
  432 : 08;
  433 : 04;
  434 : FE;
  435 : FE;
  436 : FE;
  437 : 06;
  438 : 05;
  439 : 03;
  440 : 07;
  441 : FF;
  442 : 00;
  443 : FD;
  444 : 02;
  445 : 00;
  446 : FB;
  447 : 0E;
  448 : FA;
  449 : FD;
  450 : 08;
  451 : FA;
  452 : 06;
  453 : 07;
  454 : FF;
  455 : 00;
  456 : FF;
  457 : 05;
  458 : 05;
  459 : 06;
  460 : 0A;
  461 : FA;
  462 : 01;
  463 : 0A;
  464 : 06;
  465 : 08;
  466 : FB;
  467 : 06;
  468 : F6;
  469 : 09;
  470 : 02;
  471 : FA;
  472 : FD;
  473 : FB;
  474 : 02;
  475 : 0C;
  476 : FC;
  477 : 08;
  478 : FD;
  479 : FA;
  480 : FE;
  481 : F9;
  482 : FD;
  483 : 07;
  484 : F9;
  485 : 00;
  486 : 0B;
  487 : F7;
  488 : 07;
  489 : 01;
  490 : 00;
  491 : 06;
  492 : 03;
  493 : 0B;
  494 : 04;
  495 : FA;
  496 : 04;
  497 : FE;
  498 : 06;
  499 : FC;
  500 : 03;
  501 : FF;
  502 : 01;
  503 : FB;
  504 : FE;
  505 : 01;
  506 : 05;
  507 : 06;
  508 : FD;
  509 : FB;
  510 : 04;
  511 : FE;
  512 : 03;
  513 : FA;
  514 : 07;
  515 : FB;
  516 : 06;
  517 : 06;
  518 : F8;
  519 : FD;
  520 : FC;
  521 : 05;
  522 : FF;
  523 : 0B;
  524 : 05;
  525 : F8;
  526 : 04;
  527 : 08;
  528 : 0A;
  529 : 01;
  530 : FB;
  531 : 05;
  532 : FC;
  533 : 00;
  534 : FE;
  535 : FC;
  536 : FE;
  537 : 06;
  538 : FB;
  539 : 01;
  540 : FB;
  541 : 08;
  542 : 0C;
  543 : 04;
  544 : 08;
  545 : FF;
  546 : FF;
  547 : 04;
  548 : FE;
  549 : FF;
  550 : 01;
  551 : 00;
  552 : 0A;
  553 : FF;
  554 : FA;
  555 : 03;
  556 : 0A;
  557 : 07;
  558 : FD;
  559 : FB;
  560 : 04;
  561 : 08;
  562 : 00;
  563 : 09;
  564 : FC;
  565 : 03;
  566 : FE;
  567 : FC;
  568 : FD;
  569 : 09;
  570 : F9;
  571 : 06;
  572 : F9;
  573 : 03;
  574 : 05;
  575 : 05;
  576 : 01;
  577 : 00;
  578 : 03;
  579 : F9;
  580 : 07;
  581 : 01;
  582 : 04;
  583 : 04;
  584 : 00;
  585 : 01;
  586 : FD;
  587 : 0C;
  588 : 06;
  589 : 06;
  590 : 03;
  591 : 07;
  592 : 0A;
  593 : 07;
  594 : 00;
  595 : FF;
  596 : F8;
  597 : 05;
  598 : FF;
  599 : FB;
  600 : F9;
  601 : FD;
  602 : FE;
  603 : 0B;
  604 : 01;
  605 : 00;
  606 : 04;
  607 : 05;
  608 : FA;
  609 : 04;
  610 : FE;
  611 : FF;
  612 : FE;
  613 : 00;
  614 : 0A;
  615 : FD;
  616 : 06;
  617 : FF;
  618 : F8;
  619 : 03;
  620 : 03;
  621 : 06;
  622 : 01;
  623 : 07;
  624 : FF;
  625 : 07;
  626 : 06;
  627 : FC;
  628 : F9;
  629 : FD;
  630 : 03;
  631 : FD;
  632 : 05;
  633 : 0A;
  634 : 06;
  635 : 05;
  636 : FB;
  637 : FB;
  638 : 03;
  639 : 0C;
  640 : 00;
  641 : FE;
  642 : 0A;
  643 : 01;
  644 : 03;
  645 : 0C;
  646 : FC;
  647 : 05;
  648 : 03;
  649 : FD;
  650 : FF;
  651 : 06;
  652 : FF;
  653 : FB;
  654 : F8;
  655 : 06;
  656 : 03;
  657 : 07;
  658 : 03;
  659 : 02;
  660 : F9;
  661 : 01;
  662 : FF;
  663 : FE;
  664 : FC;
  665 : 02;
  666 : FC;
  667 : 05;
  668 : 06;
  669 : 02;
  670 : 03;
  671 : F6;
  672 : 06;
  673 : FC;
  674 : 01;
  675 : 09;
  676 : FA;
  677 : FF;
  678 : 05;
  679 : 04;
  680 : FB;
  681 : FD;
  682 : F7;
  683 : FE;
  684 : 04;
  685 : 06;
  686 : 01;
  687 : 01;
  688 : 0B;
  689 : 06;
  690 : F9;
  691 : 01;
  692 : F5;
  693 : 07;
  694 : 01;
  695 : 05;
  696 : FF;
  697 : FC;
  698 : 08;
  699 : F7;
  700 : FA;
  701 : FF;
  702 : FF;
  703 : 0D;
  704 : FA;
  705 : 00;
  706 : 05;
  707 : F9;
  708 : FE;
  709 : 0C;
  710 : FF;
  711 : 04;
  712 : 07;
  713 : 08;
  714 : 03;
  715 : 09;
  716 : FF;
  717 : FE;
  718 : 03;
  719 : 01;
  720 : 0A;
  721 : 05;
  722 : 07;
  723 : 04;
  724 : FA;
  725 : 00;
  726 : FB;
  727 : FD;
  728 : 06;
  729 : 04;
  730 : 00;
  731 : 01;
  732 : FF;
  733 : 02;
  734 : 00;
  735 : 06;
  736 : 07;
  737 : FB;
  738 : 02;
  739 : 07;
  740 : 05;
  741 : FD;
  742 : 0A;
  743 : 05;
  744 : 09;
  745 : 02;
  746 : F5;
  747 : FA;
  748 : 00;
  749 : FE;
  750 : FA;
  751 : 01;
  752 : 08;
  753 : FC;
  754 : 04;
  755 : 02;
  756 : FF;
  757 : F8;
  758 : 0A;
  759 : 04;
  760 : 04;
  761 : 08;
  762 : 07;
  763 : 05;
  764 : FB;
  765 : FF;
  766 : 07;
  767 : 08;
  768 : 08;
  769 : 02;
  770 : 05;
  771 : FC;
  772 : 01;
  773 : 08;
  774 : F3;
  775 : 06;
  776 : 0E;
  777 : FE;
  778 : 03;
  779 : 06;
  780 : 04;
  781 : 01;
  782 : F5;
  783 : 14;
  784 : 0E;
  785 : 03;
  786 : 10;
  787 : F7;
  788 : F3;
  789 : 10;
  790 : 06;
  791 : F7;
  792 : ED;
  793 : 05;
  794 : 01;
  795 : 12;
  796 : 05;
  797 : 09;
  798 : 00;
  799 : F0;
  800 : FC;
  801 : FF;
  802 : FC;
  803 : 06;
  804 : F7;
  805 : 03;
  806 : 04;
  807 : FE;
  808 : 00;
  809 : FB;
  810 : F2;
  811 : 04;
  812 : 02;
  813 : 17;
  814 : FA;
  815 : 07;
  816 : 0D;
  817 : 07;
  818 : FE;
  819 : F7;
  820 : F2;
  821 : F8;
  822 : 0D;
  823 : 07;
  824 : 04;
  825 : 04;
  826 : 01;
  827 : 06;
  828 : F3;
  829 : 0C;
  830 : F5;
  831 : 0E;
  832 : FA;
  833 : 02;
  834 : 02;
  835 : 03;
  836 : 01;
  837 : 0A;
  838 : 00;
  839 : 06;
  840 : 02;
  841 : FE;
  842 : FD;
  843 : 06;
  844 : 01;
  845 : 05;
  846 : 04;
  847 : 05;
  848 : FF;
  849 : FC;
  850 : 02;
  851 : F9;
  852 : 04;
  853 : 06;
  854 : 03;
  855 : FF;
  856 : 06;
  857 : 06;
  858 : 08;
  859 : 02;
  860 : 04;
  861 : 02;
  862 : 05;
  863 : 01;
  864 : F9;
  865 : FB;
  866 : 04;
  867 : 06;
  868 : FE;
  869 : 03;
  870 : FC;
  871 : F9;
  872 : 08;
  873 : 02;
  874 : FA;
  875 : 01;
  876 : FF;
  877 : FF;
  878 : 05;
  879 : 09;
  880 : 0B;
  881 : FF;
  882 : 01;
  883 : 00;
  884 : FA;
  885 : FB;
  886 : 05;
  887 : FB;
  888 : F9;
  889 : FE;
  890 : 07;
  891 : 00;
  892 : FA;
  893 : 05;
  894 : F9;
  895 : 0D;
  896 : 04;
  897 : FF;
  898 : 01;
  899 : 07;
  900 : 06;
  901 : 09;
  902 : FC;
  903 : 06;
  904 : 09;
  905 : FA;
  906 : FD;
  907 : 06;
  908 : 07;
  909 : 07;
  910 : F7;
  911 : 04;
  912 : 08;
  913 : FA;
  914 : FD;
  915 : 02;
  916 : FE;
  917 : FE;
  918 : 02;
  919 : 03;
  920 : F7;
  921 : FE;
  922 : FA;
  923 : 08;
  924 : FA;
  925 : 05;
  926 : 01;
  927 : FC;
  928 : FB;
  929 : 03;
  930 : 07;
  931 : 01;
  932 : FC;
  933 : 05;
  934 : FE;
  935 : FE;
  936 : FE;
  937 : FE;
  938 : 04;
  939 : F8;
  940 : 00;
  941 : 00;
  942 : 06;
  943 : 08;
  944 : 07;
  945 : 07;
  946 : 05;
  947 : 06;
  948 : 05;
  949 : FD;
  950 : 01;
  951 : FA;
  952 : 07;
  953 : 01;
  954 : 07;
  955 : 04;
  956 : FC;
  957 : FA;
  958 : 01;
  959 : 09;
  960 : FD;
  961 : 05;
  962 : FD;
  963 : 04;
  964 : 09;
  965 : 09;
  966 : 06;
  967 : 08;
  968 : 00;
  969 : FE;
  970 : FE;
  971 : 0D;
  972 : 00;
  973 : FF;
  974 : FC;
  975 : 06;
  976 : 07;
  977 : 05;
  978 : 03;
  979 : 06;
  980 : F6;
  981 : 08;
  982 : 00;
  983 : 00;
  984 : 02;
  985 : 08;
  986 : 02;
  987 : FF;
  988 : FE;
  989 : FE;
  990 : FE;
  991 : 03;
  992 : 00;
  993 : 03;
  994 : 00;
  995 : 02;
  996 : FA;
  997 : 0A;
  998 : FF;
  999 : 01;
  1000 : 02;
  1001 : F8;
  1002 : F8;
  1003 : 05;
  1004 : FD;
  1005 : FE;
  1006 : FA;
  1007 : FB;
  1008 : 0A;
  1009 : 06;
  1010 : 02;
  1011 : FB;
  1012 : 00;
  1013 : FF;
  1014 : 06;
  1015 : FA;
  1016 : 03;
  1017 : 01;
  1018 : FC;
  1019 : 07;
  1020 : FC;
  1021 : FB;
  1022 : 04;
  1023 : 03;
  1024 : 04;
  1025 : FB;
  1026 : FE;
  1027 : F9;
  1028 : 09;
  1029 : FC;
  1030 : FD;
  1031 : FC;
  1032 : FF;
  1033 : 05;
  1034 : 00;
  1035 : 04;
  1036 : 01;
  1037 : 02;
  1038 : FF;
  1039 : 01;
  1040 : 0B;
  1041 : 00;
  1042 : 05;
  1043 : FF;
  1044 : 03;
  1045 : 01;
  1046 : FD;
  1047 : 01;
  1048 : 03;
  1049 : 07;
  1050 : 01;
  1051 : 0D;
  1052 : 01;
  1053 : FB;
  1054 : 0B;
  1055 : FE;
  1056 : 06;
  1057 : 05;
  1058 : 00;
  1059 : FF;
  1060 : 06;
  1061 : FE;
  1062 : 04;
  1063 : 00;
  1064 : FF;
  1065 : 02;
  1066 : F5;
  1067 : 05;
  1068 : FB;
  1069 : 06;
  1070 : 00;
  1071 : 0A;
  1072 : 03;
  1073 : FA;
  1074 : 01;
  1075 : 05;
  1076 : FB;
  1077 : FF;
  1078 : 0B;
  1079 : 02;
  1080 : 05;
  1081 : FF;
  1082 : FB;
  1083 : FF;
  1084 : 05;
  1085 : FD;
  1086 : FA;
  1087 : 0A;
  1088 : 04;
  1089 : 06;
  1090 : 07;
  1091 : 00;
  1092 : 05;
  1093 : 02;
  1094 : 07;
  1095 : FD;
  1096 : F9;
  1097 : 07;
  1098 : 0A;
  1099 : 09;
  1100 : 08;
  1101 : FE;
  1102 : 01;
  1103 : 06;
  1104 : 0E;
  1105 : 06;
  1106 : FD;
  1107 : 06;
  1108 : 01;
  1109 : 08;
  1110 : FE;
  1111 : FC;
  1112 : FB;
  1113 : 03;
  1114 : 07;
  1115 : 07;
  1116 : FD;
  1117 : 05;
  1118 : 03;
  1119 : F8;
  1120 : 06;
  1121 : 06;
  1122 : 07;
  1123 : FC;
  1124 : 05;
  1125 : 08;
  1126 : 04;
  1127 : F7;
  1128 : 04;
  1129 : FB;
  1130 : FA;
  1131 : F9;
  1132 : FC;
  1133 : 00;
  1134 : FD;
  1135 : 08;
  1136 : FF;
  1137 : 02;
  1138 : 05;
  1139 : 0A;
  1140 : 04;
  1141 : FF;
  1142 : 07;
  1143 : 06;
  1144 : 04;
  1145 : FB;
  1146 : 06;
  1147 : 07;
  1148 : FF;
  1149 : 09;
  1150 : 06;
  1151 : 00;
  1152 : 02;
  1153 : 06;
  1154 : 0B;
  1155 : FB;
  1156 : 01;
  1157 : 0D;
  1158 : F9;
  1159 : 04;
  1160 : 06;
  1161 : FF;
  1162 : FB;
  1163 : 03;
  1164 : 08;
  1165 : 00;
  1166 : F7;
  1167 : 09;
  1168 : 0E;
  1169 : FF;
  1170 : 06;
  1171 : F7;
  1172 : F9;
  1173 : 08;
  1174 : 03;
  1175 : FC;
  1176 : F6;
  1177 : 0A;
  1178 : 03;
  1179 : 0F;
  1180 : F9;
  1181 : 04;
  1182 : 0A;
  1183 : FE;
  1184 : 05;
  1185 : FE;
  1186 : 02;
  1187 : 02;
  1188 : 08;
  1189 : 04;
  1190 : 03;
  1191 : F8;
  1192 : 03;
  1193 : FB;
  1194 : FA;
  1195 : FC;
  1196 : 00;
  1197 : 0A;
  1198 : 04;
  1199 : 0F;
  1200 : 0D;
  1201 : 04;
  1202 : F9;
  1203 : 06;
  1204 : 01;
  1205 : FF;
  1206 : 06;
  1207 : 04;
  1208 : FB;
  1209 : FF;
  1210 : 03;
  1211 : 04;
  1212 : FB;
  1213 : FD;
  1214 : 02;
  1215 : 06;
  1216 : FD;
  1217 : 08;
  1218 : 01;
  1219 : 01;
  1220 : 07;
  1221 : 06;
  1222 : FC;
  1223 : FC;
  1224 : 07;
  1225 : FC;
  1226 : FC;
  1227 : 09;
  1228 : FF;
  1229 : FE;
  1230 : 05;
  1231 : 08;
  1232 : 06;
  1233 : FC;
  1234 : FB;
  1235 : FD;
  1236 : F7;
  1237 : 07;
  1238 : 07;
  1239 : 05;
  1240 : 02;
  1241 : FB;
  1242 : 08;
  1243 : 04;
  1244 : 04;
  1245 : 07;
  1246 : 00;
  1247 : F9;
  1248 : 04;
  1249 : FE;
  1250 : 08;
  1251 : 04;
  1252 : 05;
  1253 : 04;
  1254 : 07;
  1255 : FE;
  1256 : 04;
  1257 : FC;
  1258 : FA;
  1259 : F9;
  1260 : 06;
  1261 : 02;
  1262 : F9;
  1263 : FF;
  1264 : 03;
  1265 : FD;
  1266 : FD;
  1267 : FB;
  1268 : FC;
  1269 : FB;
  1270 : 02;
  1271 : 07;
  1272 : 01;
  1273 : FF;
  1274 : 00;
  1275 : 00;
  1276 : 02;
  1277 : FE;
  1278 : FB;
  1279 : 05;
  1280 : 0B;
  1281 : F4;
  1282 : 0F;
  1283 : 07;
  1284 : 00;
  1285 : 0D;
  1286 : 00;
  1287 : FB;
  1288 : 06;
  1289 : FB;
  1290 : FF;
  1291 : 12;
  1292 : FD;
  1293 : 02;
  1294 : FD;
  1295 : 15;
  1296 : 14;
  1297 : FA;
  1298 : 09;
  1299 : F3;
  1300 : EB;
  1301 : 13;
  1302 : FF;
  1303 : 02;
  1304 : F7;
  1305 : 07;
  1306 : 04;
  1307 : 0A;
  1308 : 01;
  1309 : FF;
  1310 : FF;
  1311 : FD;
  1312 : FB;
  1313 : FA;
  1314 : 02;
  1315 : 03;
  1316 : F5;
  1317 : 0E;
  1318 : 0B;
  1319 : 07;
  1320 : 0A;
  1321 : FA;
  1322 : E8;
  1323 : FF;
  1324 : 02;
  1325 : 09;
  1326 : FD;
  1327 : 0D;
  1328 : 05;
  1329 : FC;
  1330 : 03;
  1331 : F8;
  1332 : F6;
  1333 : FC;
  1334 : 07;
  1335 : FC;
  1336 : 03;
  1337 : FD;
  1338 : FB;
  1339 : 06;
  1340 : FA;
  1341 : 0C;
  1342 : FE;
  1343 : 0E;
  1344 : 00;
  1345 : FF;
  1346 : 0A;
  1347 : 03;
  1348 : 02;
  1349 : 03;
  1350 : FE;
  1351 : FA;
  1352 : FF;
  1353 : FB;
  1354 : 0D;
  1355 : 03;
  1356 : 09;
  1357 : 06;
  1358 : F5;
  1359 : 0E;
  1360 : 00;
  1361 : 08;
  1362 : 00;
  1363 : 01;
  1364 : 01;
  1365 : FE;
  1366 : 05;
  1367 : 03;
  1368 : 05;
  1369 : 02;
  1370 : FE;
  1371 : 03;
  1372 : 03;
  1373 : FE;
  1374 : 00;
  1375 : F5;
  1376 : 05;
  1377 : 06;
  1378 : FB;
  1379 : 00;
  1380 : FF;
  1381 : 07;
  1382 : 05;
  1383 : FA;
  1384 : 03;
  1385 : F9;
  1386 : FD;
  1387 : FF;
  1388 : 05;
  1389 : 05;
  1390 : 04;
  1391 : 05;
  1392 : FD;
  1393 : 03;
  1394 : 09;
  1395 : 03;
  1396 : 04;
  1397 : FD;
  1398 : FE;
  1399 : 00;
  1400 : FC;
  1401 : FD;
  1402 : FD;
  1403 : F8;
  1404 : 06;
  1405 : F8;
  1406 : 01;
  1407 : 10;
  1408 : FE;
  1409 : 05;
  1410 : FC;
  1411 : 02;
  1412 : 04;
  1413 : 06;
  1414 : F9;
  1415 : 07;
  1416 : 08;
  1417 : FB;
  1418 : 09;
  1419 : 02;
  1420 : 03;
  1421 : F8;
  1422 : 02;
  1423 : 05;
  1424 : 0A;
  1425 : 00;
  1426 : FD;
  1427 : F7;
  1428 : 01;
  1429 : 0C;
  1430 : 01;
  1431 : F8;
  1432 : FF;
  1433 : FD;
  1434 : 07;
  1435 : 01;
  1436 : FB;
  1437 : 01;
  1438 : 01;
  1439 : F8;
  1440 : FC;
  1441 : FD;
  1442 : 04;
  1443 : 0A;
  1444 : 03;
  1445 : 08;
  1446 : 0B;
  1447 : F9;
  1448 : 08;
  1449 : FB;
  1450 : FD;
  1451 : 05;
  1452 : FD;
  1453 : 06;
  1454 : 05;
  1455 : 01;
  1456 : FC;
  1457 : 00;
  1458 : 05;
  1459 : FC;
  1460 : F6;
  1461 : 07;
  1462 : 08;
  1463 : 03;
  1464 : FA;
  1465 : 02;
  1466 : FE;
  1467 : FD;
  1468 : FB;
  1469 : FE;
  1470 : FF;
  1471 : 04;
  1472 : 03;
  1473 : 05;
  1474 : 04;
  1475 : 04;
  1476 : 01;
  1477 : 07;
  1478 : 02;
  1479 : 07;
  1480 : 06;
  1481 : FE;
  1482 : 07;
  1483 : 06;
  1484 : 04;
  1485 : FE;
  1486 : FC;
  1487 : 08;
  1488 : 06;
  1489 : 09;
  1490 : 01;
  1491 : FE;
  1492 : FF;
  1493 : FE;
  1494 : 04;
  1495 : 04;
  1496 : 03;
  1497 : FD;
  1498 : FD;
  1499 : 0B;
  1500 : 04;
  1501 : FF;
  1502 : 09;
  1503 : FF;
  1504 : 00;
  1505 : FE;
  1506 : 02;
  1507 : 01;
  1508 : 04;
  1509 : 03;
  1510 : FE;
  1511 : 01;
  1512 : 00;
  1513 : FD;
  1514 : 01;
  1515 : 05;
  1516 : FD;
  1517 : 08;
  1518 : 06;
  1519 : 0B;
  1520 : FF;
  1521 : F8;
  1522 : FB;
  1523 : FC;
  1524 : F7;
  1525 : 05;
  1526 : 08;
  1527 : FA;
  1528 : FC;
  1529 : 02;
  1530 : 05;
  1531 : 05;
  1532 : 05;
  1533 : FE;
  1534 : 06;
  1535 : 0E;
  1536 : 01;
  1537 : 00;
  1538 : 09;
  1539 : 05;
  1540 : 00;
  1541 : 03;
  1542 : 00;
  1543 : 05;
  1544 : F7;
  1545 : 08;
  1546 : 10;
  1547 : FF;
  1548 : 0A;
  1549 : 01;
  1550 : F4;
  1551 : 01;
  1552 : 04;
  1553 : 01;
  1554 : 04;
  1555 : FB;
  1556 : 00;
  1557 : 00;
  1558 : FE;
  1559 : FC;
  1560 : 06;
  1561 : 0B;
  1562 : FC;
  1563 : 0C;
  1564 : FE;
  1565 : 0A;
  1566 : 04;
  1567 : FD;
  1568 : 06;
  1569 : 07;
  1570 : 06;
  1571 : 04;
  1572 : 00;
  1573 : 03;
  1574 : FC;
  1575 : FA;
  1576 : F4;
  1577 : 03;
  1578 : F3;
  1579 : F8;
  1580 : 03;
  1581 : 02;
  1582 : 01;
  1583 : 04;
  1584 : 03;
  1585 : FA;
  1586 : FF;
  1587 : 00;
  1588 : FB;
  1589 : F9;
  1590 : 08;
  1591 : FE;
  1592 : FD;
  1593 : F6;
  1594 : FC;
  1595 : 06;
  1596 : 05;
  1597 : 00;
  1598 : 03;
  1599 : 03;
  1600 : FE;
  1601 : FA;
  1602 : 02;
  1603 : 00;
  1604 : 02;
  1605 : 01;
  1606 : 06;
  1607 : 00;
  1608 : F5;
  1609 : 07;
  1610 : 0E;
  1611 : 03;
  1612 : 0B;
  1613 : 05;
  1614 : F8;
  1615 : 06;
  1616 : 08;
  1617 : 02;
  1618 : F8;
  1619 : 04;
  1620 : 05;
  1621 : 0C;
  1622 : 05;
  1623 : F8;
  1624 : 03;
  1625 : 03;
  1626 : 05;
  1627 : 07;
  1628 : FA;
  1629 : 04;
  1630 : 09;
  1631 : FB;
  1632 : F9;
  1633 : 01;
  1634 : 04;
  1635 : 0F;
  1636 : 0A;
  1637 : 05;
  1638 : FC;
  1639 : 01;
  1640 : 00;
  1641 : 03;
  1642 : FB;
  1643 : 04;
  1644 : 01;
  1645 : 03;
  1646 : 07;
  1647 : 00;
  1648 : 03;
  1649 : FF;
  1650 : 02;
  1651 : 01;
  1652 : F7;
  1653 : 04;
  1654 : 0F;
  1655 : 04;
  1656 : 03;
  1657 : F4;
  1658 : 05;
  1659 : FE;
  1660 : FB;
  1661 : 07;
  1662 : F9;
  1663 : 0E;
  1664 : 07;
  1665 : FA;
  1666 : 07;
  1667 : FB;
  1668 : FA;
  1669 : 05;
  1670 : FE;
  1671 : 03;
  1672 : 03;
  1673 : 06;
  1674 : 0F;
  1675 : FC;
  1676 : 07;
  1677 : 01;
  1678 : F8;
  1679 : 08;
  1680 : 04;
  1681 : 06;
  1682 : 09;
  1683 : 04;
  1684 : 00;
  1685 : 0A;
  1686 : FE;
  1687 : FE;
  1688 : FB;
  1689 : 06;
  1690 : 05;
  1691 : 07;
  1692 : F9;
  1693 : 00;
  1694 : 02;
  1695 : 00;
  1696 : FC;
  1697 : 00;
  1698 : FC;
  1699 : 0D;
  1700 : 03;
  1701 : 09;
  1702 : 04;
  1703 : 00;
  1704 : F6;
  1705 : 08;
  1706 : FC;
  1707 : 03;
  1708 : 04;
  1709 : 07;
  1710 : FD;
  1711 : 0C;
  1712 : 09;
  1713 : FF;
  1714 : FD;
  1715 : 00;
  1716 : F9;
  1717 : 07;
  1718 : 07;
  1719 : FD;
  1720 : FD;
  1721 : F2;
  1722 : 02;
  1723 : F7;
  1724 : F5;
  1725 : 05;
  1726 : FA;
  1727 : 01;
  1728 : 09;
  1729 : 06;
  1730 : 07;
  1731 : FA;
  1732 : 02;
  1733 : 00;
  1734 : 07;
  1735 : 0A;
  1736 : 03;
  1737 : 01;
  1738 : 03;
  1739 : 01;
  1740 : 08;
  1741 : 03;
  1742 : 00;
  1743 : 0B;
  1744 : 02;
  1745 : 02;
  1746 : F7;
  1747 : 00;
  1748 : FD;
  1749 : 03;
  1750 : 02;
  1751 : FE;
  1752 : 03;
  1753 : 0A;
  1754 : FE;
  1755 : 0D;
  1756 : FD;
  1757 : 05;
  1758 : 0E;
  1759 : FC;
  1760 : 04;
  1761 : FB;
  1762 : 08;
  1763 : 06;
  1764 : FE;
  1765 : 08;
  1766 : 0A;
  1767 : F7;
  1768 : 04;
  1769 : FE;
  1770 : 01;
  1771 : 05;
  1772 : 02;
  1773 : FF;
  1774 : 02;
  1775 : 09;
  1776 : 01;
  1777 : 02;
  1778 : 02;
  1779 : 05;
  1780 : FE;
  1781 : 06;
  1782 : 00;
  1783 : FD;
  1784 : 01;
  1785 : FB;
  1786 : FF;
  1787 : F8;
  1788 : 00;
  1789 : 05;
  1790 : FE;
  1791 : 03;
  1792 : 0A;
  1793 : F7;
  1794 : 0E;
  1795 : 05;
  1796 : 06;
  1797 : 09;
  1798 : 00;
  1799 : FE;
  1800 : 05;
  1801 : 01;
  1802 : 04;
  1803 : 09;
  1804 : FF;
  1805 : 02;
  1806 : FC;
  1807 : 10;
  1808 : 10;
  1809 : 06;
  1810 : 07;
  1811 : FD;
  1812 : F0;
  1813 : 17;
  1814 : FE;
  1815 : F7;
  1816 : F4;
  1817 : 00;
  1818 : 07;
  1819 : 11;
  1820 : FF;
  1821 : FA;
  1822 : 04;
  1823 : F4;
  1824 : 00;
  1825 : 04;
  1826 : 05;
  1827 : 01;
  1828 : FA;
  1829 : 06;
  1830 : 0A;
  1831 : FF;
  1832 : 0B;
  1833 : 04;
  1834 : F0;
  1835 : 06;
  1836 : 02;
  1837 : 10;
  1838 : 06;
  1839 : 10;
  1840 : 0D;
  1841 : 04;
  1842 : 03;
  1843 : 04;
  1844 : F9;
  1845 : 03;
  1846 : 05;
  1847 : FB;
  1848 : 05;
  1849 : 04;
  1850 : 03;
  1851 : FD;
  1852 : EE;
  1853 : 05;
  1854 : FC;
  1855 : 0C;
  1856 : 05;
  1857 : FC;
  1858 : 05;
  1859 : 07;
  1860 : 03;
  1861 : FD;
  1862 : 0B;
  1863 : 05;
  1864 : FE;
  1865 : 06;
  1866 : 09;
  1867 : 03;
  1868 : 05;
  1869 : FA;
  1870 : FD;
  1871 : 00;
  1872 : 0C;
  1873 : FF;
  1874 : FB;
  1875 : 05;
  1876 : FC;
  1877 : 03;
  1878 : FD;
  1879 : F3;
  1880 : 0B;
  1881 : 08;
  1882 : 04;
  1883 : 08;
  1884 : FB;
  1885 : 0C;
  1886 : 0F;
  1887 : FC;
  1888 : FA;
  1889 : 03;
  1890 : 01;
  1891 : 05;
  1892 : 0A;
  1893 : 06;
  1894 : 03;
  1895 : FC;
  1896 : FB;
  1897 : FD;
  1898 : 00;
  1899 : 04;
  1900 : FF;
  1901 : 03;
  1902 : FE;
  1903 : 08;
  1904 : FE;
  1905 : 07;
  1906 : 02;
  1907 : 0D;
  1908 : 02;
  1909 : 04;
  1910 : 02;
  1911 : F8;
  1912 : 06;
  1913 : F7;
  1914 : 0A;
  1915 : FB;
  1916 : F7;
  1917 : 11;
  1918 : 01;
  1919 : 0D;
  1920 : FF;
  1921 : 02;
  1922 : FF;
  1923 : FE;
  1924 : FB;
  1925 : FE;
  1926 : 04;
  1927 : 09;
  1928 : F2;
  1929 : 02;
  1930 : 0B;
  1931 : 05;
  1932 : 05;
  1933 : 06;
  1934 : FA;
  1935 : 08;
  1936 : 09;
  1937 : 07;
  1938 : F5;
  1939 : FB;
  1940 : FE;
  1941 : 05;
  1942 : 03;
  1943 : F5;
  1944 : 09;
  1945 : 0E;
  1946 : 07;
  1947 : 0E;
  1948 : 03;
  1949 : FF;
  1950 : 08;
  1951 : 00;
  1952 : FE;
  1953 : 06;
  1954 : F9;
  1955 : 0E;
  1956 : FE;
  1957 : 04;
  1958 : 01;
  1959 : FC;
  1960 : FB;
  1961 : 08;
  1962 : F9;
  1963 : FA;
  1964 : 00;
  1965 : 0A;
  1966 : 00;
  1967 : 08;
  1968 : 08;
  1969 : 04;
  1970 : 0B;
  1971 : 0A;
  1972 : 04;
  1973 : 03;
  1974 : 08;
  1975 : FF;
  1976 : 00;
  1977 : FC;
  1978 : 01;
  1979 : FE;
  1980 : F9;
  1981 : 09;
  1982 : FE;
  1983 : 04;
  1984 : FA;
  1985 : FA;
  1986 : 0A;
  1987 : 03;
  1988 : FB;
  1989 : 03;
  1990 : 06;
  1991 : 03;
  1992 : F9;
  1993 : FD;
  1994 : 09;
  1995 : 01;
  1996 : 06;
  1997 : 07;
  1998 : FF;
  1999 : 0A;
  2000 : 09;
  2001 : 0A;
  2002 : FA;
  2003 : 06;
  2004 : 02;
  2005 : 03;
  2006 : 04;
  2007 : F7;
  2008 : 02;
  2009 : 06;
  2010 : 00;
  2011 : 02;
  2012 : FC;
  2013 : 06;
  2014 : 0A;
  2015 : 06;
  2016 : 06;
  2017 : FB;
  2018 : 01;
  2019 : FF;
  2020 : FE;
  2021 : 01;
  2022 : 0A;
  2023 : F8;
  2024 : FC;
  2025 : 00;
  2026 : 01;
  2027 : FA;
  2028 : FF;
  2029 : 01;
  2030 : FC;
  2031 : FC;
  2032 : 06;
  2033 : FE;
  2034 : 09;
  2035 : FE;
  2036 : 00;
  2037 : 04;
  2038 : 00;
  2039 : F8;
  2040 : FA;
  2041 : F8;
  2042 : 02;
  2043 : 03;
  2044 : F9;
  2045 : 00;
  2046 : 02;
  2047 : 00;
  2048 : 0B;
  2049 : 02;
  2050 : 08;
  2051 : 07;
  2052 : FD;
  2053 : F1;
  2054 : 10;
  2055 : FD;
  2056 : F6;
  2057 : 05;
  2058 : 07;
  2059 : FC;
  2060 : 0D;
  2061 : FB;
  2062 : F9;
  2063 : F5;
  2064 : 0D;
  2065 : F3;
  2066 : F6;
  2067 : 09;
  2068 : 03;
  2069 : 18;
  2070 : FD;
  2071 : F8;
  2072 : 06;
  2073 : 08;
  2074 : 00;
  2075 : 04;
  2076 : 01;
  2077 : 06;
  2078 : 08;
  2079 : F3;
  2080 : 06;
  2081 : 06;
  2082 : FD;
  2083 : 12;
  2084 : FF;
  2085 : FF;
  2086 : F8;
  2087 : 0F;
  2088 : F9;
  2089 : FE;
  2090 : FA;
  2091 : 00;
  2092 : 03;
  2093 : 0E;
  2094 : 02;
  2095 : 08;
  2096 : 05;
  2097 : FC;
  2098 : FB;
  2099 : FF;
  2100 : F7;
  2101 : FE;
  2102 : 14;
  2103 : 04;
  2104 : FD;
  2105 : F3;
  2106 : 04;
  2107 : FC;
  2108 : 07;
  2109 : FB;
  2110 : FA;
  2111 : FC;
  2112 : 03;
  2113 : FD;
  2114 : 08;
  2115 : FD;
  2116 : F7;
  2117 : FD;
  2118 : 07;
  2119 : 03;
  2120 : F1;
  2121 : FE;
  2122 : 0B;
  2123 : FA;
  2124 : 0F;
  2125 : 05;
  2126 : 08;
  2127 : EB;
  2128 : 0F;
  2129 : ED;
  2130 : F7;
  2131 : 08;
  2132 : F9;
  2133 : 12;
  2134 : 01;
  2135 : FC;
  2136 : 01;
  2137 : FE;
  2138 : FE;
  2139 : 06;
  2140 : 04;
  2141 : 10;
  2142 : 01;
  2143 : F1;
  2144 : 02;
  2145 : 05;
  2146 : 01;
  2147 : 0C;
  2148 : 0C;
  2149 : 01;
  2150 : F8;
  2151 : 0F;
  2152 : EC;
  2153 : 04;
  2154 : F8;
  2155 : 05;
  2156 : 07;
  2157 : 05;
  2158 : FA;
  2159 : 06;
  2160 : FF;
  2161 : FC;
  2162 : FB;
  2163 : F6;
  2164 : 01;
  2165 : 08;
  2166 : 11;
  2167 : F6;
  2168 : 00;
  2169 : EF;
  2170 : 02;
  2171 : 02;
  2172 : FF;
  2173 : FF;
  2174 : FE;
  2175 : FC;
  2176 : 05;
  2177 : 06;
  2178 : 05;
  2179 : 05;
  2180 : F9;
  2181 : F8;
  2182 : 06;
  2183 : FD;
  2184 : 00;
  2185 : FA;
  2186 : 05;
  2187 : FF;
  2188 : 16;
  2189 : FC;
  2190 : 02;
  2191 : FF;
  2192 : 0F;
  2193 : F6;
  2194 : 00;
  2195 : 07;
  2196 : FA;
  2197 : 1A;
  2198 : FB;
  2199 : F6;
  2200 : F3;
  2201 : FD;
  2202 : FB;
  2203 : 09;
  2204 : FF;
  2205 : 13;
  2206 : 02;
  2207 : F0;
  2208 : FE;
  2209 : 02;
  2210 : FB;
  2211 : 15;
  2212 : 06;
  2213 : 03;
  2214 : FA;
  2215 : 11;
  2216 : FC;
  2217 : FF;
  2218 : F8;
  2219 : 07;
  2220 : 07;
  2221 : 10;
  2222 : FD;
  2223 : 0D;
  2224 : 0D;
  2225 : 02;
  2226 : F2;
  2227 : F6;
  2228 : F5;
  2229 : 02;
  2230 : 12;
  2231 : 01;
  2232 : F6;
  2233 : FA;
  2234 : FE;
  2235 : 04;
  2236 : 09;
  2237 : F3;
  2238 : 00;
  2239 : F9;
  2240 : 06;
  2241 : F9;
  2242 : 0A;
  2243 : 07;
  2244 : F1;
  2245 : F6;
  2246 : 09;
  2247 : FB;
  2248 : EC;
  2249 : 00;
  2250 : 07;
  2251 : FA;
  2252 : 0D;
  2253 : 04;
  2254 : F5;
  2255 : 06;
  2256 : FB;
  2257 : 04;
  2258 : EE;
  2259 : FD;
  2260 : FD;
  2261 : 0F;
  2262 : FF;
  2263 : F6;
  2264 : 0B;
  2265 : 11;
  2266 : 00;
  2267 : 0A;
  2268 : F9;
  2269 : 0D;
  2270 : 07;
  2271 : F7;
  2272 : 01;
  2273 : FE;
  2274 : 01;
  2275 : 0D;
  2276 : 03;
  2277 : 08;
  2278 : 01;
  2279 : 07;
  2280 : F0;
  2281 : 06;
  2282 : F8;
  2283 : 07;
  2284 : FF;
  2285 : 10;
  2286 : F9;
  2287 : 00;
  2288 : 03;
  2289 : FD;
  2290 : FF;
  2291 : 0B;
  2292 : 03;
  2293 : 05;
  2294 : 0F;
  2295 : 03;
  2296 : FA;
  2297 : F1;
  2298 : 00;
  2299 : FC;
  2300 : 04;
  2301 : 10;
  2302 : FA;
  2303 : 05;
  2304 : 08;
  2305 : F8;
  2306 : 08;
  2307 : 01;
  2308 : 07;
  2309 : 0F;
  2310 : 02;
  2311 : FD;
  2312 : 0B;
  2313 : 02;
  2314 : 00;
  2315 : 08;
  2316 : FF;
  2317 : FE;
  2318 : F0;
  2319 : 0A;
  2320 : 07;
  2321 : FB;
  2322 : 0F;
  2323 : F3;
  2324 : EF;
  2325 : 13;
  2326 : 07;
  2327 : FB;
  2328 : FA;
  2329 : 0F;
  2330 : 08;
  2331 : 15;
  2332 : 00;
  2333 : 09;
  2334 : 07;
  2335 : F2;
  2336 : 05;
  2337 : 06;
  2338 : 02;
  2339 : 0E;
  2340 : FF;
  2341 : 0D;
  2342 : 05;
  2343 : FC;
  2344 : 04;
  2345 : FE;
  2346 : E9;
  2347 : 03;
  2348 : 06;
  2349 : 16;
  2350 : FF;
  2351 : 09;
  2352 : 12;
  2353 : 01;
  2354 : FA;
  2355 : FE;
  2356 : FC;
  2357 : 04;
  2358 : 12;
  2359 : FC;
  2360 : FC;
  2361 : FF;
  2362 : 08;
  2363 : 03;
  2364 : EF;
  2365 : 03;
  2366 : 01;
  2367 : 0C;
  2368 : 0E;
  2369 : 02;
  2370 : 10;
  2371 : FA;
  2372 : EE;
  2373 : F4;
  2374 : 09;
  2375 : F4;
  2376 : F5;
  2377 : 01;
  2378 : 10;
  2379 : FE;
  2380 : 11;
  2381 : FC;
  2382 : FF;
  2383 : F9;
  2384 : 03;
  2385 : F1;
  2386 : EF;
  2387 : 09;
  2388 : 01;
  2389 : 16;
  2390 : FB;
  2391 : FA;
  2392 : FC;
  2393 : 02;
  2394 : 00;
  2395 : 0A;
  2396 : 08;
  2397 : 13;
  2398 : 11;
  2399 : F8;
  2400 : FA;
  2401 : 02;
  2402 : 02;
  2403 : 19;
  2404 : 06;
  2405 : 03;
  2406 : FC;
  2407 : 10;
  2408 : EF;
  2409 : FE;
  2410 : F3;
  2411 : FD;
  2412 : 05;
  2413 : 0F;
  2414 : 06;
  2415 : 02;
  2416 : 02;
  2417 : FA;
  2418 : FC;
  2419 : F9;
  2420 : F7;
  2421 : 00;
  2422 : 0D;
  2423 : FB;
  2424 : 00;
  2425 : EE;
  2426 : 0E;
  2427 : 01;
  2428 : FF;
  2429 : 0C;
  2430 : FD;
  2431 : 07;
  2432 : 0B;
  2433 : FF;
  2434 : 05;
  2435 : FF;
  2436 : F5;
  2437 : FB;
  2438 : 0C;
  2439 : FD;
  2440 : F0;
  2441 : F8;
  2442 : 0D;
  2443 : F9;
  2444 : 15;
  2445 : F8;
  2446 : 00;
  2447 : F1;
  2448 : 16;
  2449 : EB;
  2450 : F0;
  2451 : 10;
  2452 : FD;
  2453 : 19;
  2454 : 02;
  2455 : F5;
  2456 : 05;
  2457 : 08;
  2458 : FC;
  2459 : 12;
  2460 : 04;
  2461 : 0A;
  2462 : 0B;
  2463 : F8;
  2464 : 05;
  2465 : 02;
  2466 : FA;
  2467 : 11;
  2468 : 03;
  2469 : 01;
  2470 : F1;
  2471 : 0D;
  2472 : EF;
  2473 : FD;
  2474 : F0;
  2475 : 06;
  2476 : 07;
  2477 : 0A;
  2478 : 04;
  2479 : 07;
  2480 : 00;
  2481 : 07;
  2482 : F9;
  2483 : FE;
  2484 : F7;
  2485 : FF;
  2486 : 11;
  2487 : 00;
  2488 : FD;
  2489 : EB;
  2490 : 03;
  2491 : F8;
  2492 : 07;
  2493 : FE;
  2494 : 01;
  2495 : FD;
  2496 : 08;
  2497 : F7;
  2498 : 03;
  2499 : 03;
  2500 : F4;
  2501 : F9;
  2502 : 0F;
  2503 : 0B;
  2504 : FB;
  2505 : 04;
  2506 : 16;
  2507 : FD;
  2508 : 09;
  2509 : 05;
  2510 : FA;
  2511 : 02;
  2512 : 05;
  2513 : 0B;
  2514 : FE;
  2515 : 02;
  2516 : FD;
  2517 : 08;
  2518 : 07;
  2519 : F5;
  2520 : 05;
  2521 : 14;
  2522 : FD;
  2523 : 10;
  2524 : 07;
  2525 : 05;
  2526 : 03;
  2527 : FA;
  2528 : F7;
  2529 : 08;
  2530 : FC;
  2531 : 03;
  2532 : 06;
  2533 : 0B;
  2534 : FA;
  2535 : 04;
  2536 : F6;
  2537 : FE;
  2538 : FB;
  2539 : FD;
  2540 : F8;
  2541 : 0B;
  2542 : 01;
  2543 : 07;
  2544 : 03;
  2545 : 01;
  2546 : 10;
  2547 : 0E;
  2548 : F6;
  2549 : 02;
  2550 : 10;
  2551 : F9;
  2552 : 03;
  2553 : EE;
  2554 : 0C;
  2555 : 02;
  2556 : F7;
  2557 : 00;
  2558 : FA;
  2559 : 02;
  2560 : 07;
  2561 : F7;
  2562 : 01;
  2563 : 03;
  2564 : F2;
  2565 : F7;
  2566 : 00;
  2567 : 04;
  2568 : 01;
  2569 : 04;
  2570 : 0A;
  2571 : F7;
  2572 : 09;
  2573 : FB;
  2574 : 03;
  2575 : F9;
  2576 : 08;
  2577 : F9;
  2578 : F8;
  2579 : 06;
  2580 : FC;
  2581 : 11;
  2582 : 05;
  2583 : F8;
  2584 : 01;
  2585 : 04;
  2586 : F9;
  2587 : 09;
  2588 : FD;
  2589 : 12;
  2590 : 0D;
  2591 : F7;
  2592 : 00;
  2593 : FE;
  2594 : F9;
  2595 : 15;
  2596 : 05;
  2597 : 04;
  2598 : F6;
  2599 : 16;
  2600 : FC;
  2601 : 05;
  2602 : F8;
  2603 : 03;
  2604 : 07;
  2605 : 0F;
  2606 : 03;
  2607 : 03;
  2608 : FE;
  2609 : 02;
  2610 : FB;
  2611 : F5;
  2612 : 02;
  2613 : FF;
  2614 : 0E;
  2615 : F7;
  2616 : FC;
  2617 : EA;
  2618 : 0B;
  2619 : FE;
  2620 : 08;
  2621 : FF;
  2622 : 02;
  2623 : F7;
  2624 : 02;
  2625 : 03;
  2626 : 0C;
  2627 : FE;
  2628 : F2;
  2629 : F4;
  2630 : 03;
  2631 : 03;
  2632 : FB;
  2633 : FF;
  2634 : 0A;
  2635 : F8;
  2636 : 0D;
  2637 : FE;
  2638 : 04;
  2639 : F6;
  2640 : 12;
  2641 : EE;
  2642 : 02;
  2643 : 03;
  2644 : 02;
  2645 : 0F;
  2646 : 08;
  2647 : F9;
  2648 : 05;
  2649 : 05;
  2650 : 07;
  2651 : 07;
  2652 : FE;
  2653 : 17;
  2654 : 09;
  2655 : F8;
  2656 : 04;
  2657 : FA;
  2658 : FD;
  2659 : 10;
  2660 : 02;
  2661 : 00;
  2662 : FB;
  2663 : 15;
  2664 : FA;
  2665 : 03;
  2666 : 02;
  2667 : FC;
  2668 : F9;
  2669 : 11;
  2670 : FA;
  2671 : 0B;
  2672 : FD;
  2673 : FD;
  2674 : 02;
  2675 : FC;
  2676 : 07;
  2677 : 03;
  2678 : 02;
  2679 : F9;
  2680 : FD;
  2681 : EF;
  2682 : 02;
  2683 : FA;
  2684 : 06;
  2685 : F6;
  2686 : 01;
  2687 : FC;
  2688 : 0A;
  2689 : 06;
  2690 : 03;
  2691 : FC;
  2692 : F4;
  2693 : 02;
  2694 : 0A;
  2695 : 00;
  2696 : 02;
  2697 : FB;
  2698 : 0F;
  2699 : 02;
  2700 : 0B;
  2701 : FD;
  2702 : 06;
  2703 : EB;
  2704 : 11;
  2705 : EA;
  2706 : F3;
  2707 : 10;
  2708 : 07;
  2709 : 1E;
  2710 : 08;
  2711 : 00;
  2712 : FD;
  2713 : FD;
  2714 : 08;
  2715 : 10;
  2716 : FE;
  2717 : 1A;
  2718 : FC;
  2719 : FB;
  2720 : 0B;
  2721 : FF;
  2722 : 04;
  2723 : 1D;
  2724 : F8;
  2725 : F6;
  2726 : F4;
  2727 : 19;
  2728 : F5;
  2729 : FC;
  2730 : FB;
  2731 : 07;
  2732 : 00;
  2733 : 17;
  2734 : 03;
  2735 : 0B;
  2736 : 07;
  2737 : 01;
  2738 : FB;
  2739 : F9;
  2740 : F6;
  2741 : FF;
  2742 : 14;
  2743 : FF;
  2744 : F7;
  2745 : EE;
  2746 : 06;
  2747 : 06;
  2748 : 02;
  2749 : FB;
  2750 : F8;
  2751 : EB;
  2752 : 0C;
  2753 : FB;
  2754 : 11;
  2755 : FF;
  2756 : EF;
  2757 : FB;
  2758 : 04;
  2759 : F9;
  2760 : FC;
  2761 : FC;
  2762 : 0E;
  2763 : F7;
  2764 : 15;
  2765 : 03;
  2766 : FF;
  2767 : EE;
  2768 : 09;
  2769 : EB;
  2770 : EE;
  2771 : 0C;
  2772 : 09;
  2773 : 1A;
  2774 : 04;
  2775 : EC;
  2776 : 00;
  2777 : FA;
  2778 : 06;
  2779 : 07;
  2780 : FD;
  2781 : 16;
  2782 : 05;
  2783 : F0;
  2784 : FC;
  2785 : FC;
  2786 : FB;
  2787 : 15;
  2788 : FF;
  2789 : F7;
  2790 : ED;
  2791 : 13;
  2792 : F8;
  2793 : FA;
  2794 : F9;
  2795 : FB;
  2796 : FE;
  2797 : 0D;
  2798 : 04;
  2799 : 07;
  2800 : FE;
  2801 : 00;
  2802 : FC;
  2803 : FB;
  2804 : 01;
  2805 : 06;
  2806 : 1D;
  2807 : F6;
  2808 : FF;
  2809 : F6;
  2810 : FF;
  2811 : FE;
  2812 : 0D;
  2813 : F6;
  2814 : FE;
  2815 : E6;
  2816 : 06;
  2817 : FF;
  2818 : 0F;
  2819 : 02;
  2820 : 07;
  2821 : 10;
  2822 : FA;
  2823 : 00;
  2824 : FD;
  2825 : 00;
  2826 : 02;
  2827 : 02;
  2828 : 0E;
  2829 : 01;
  2830 : F2;
  2831 : 03;
  2832 : 0C;
  2833 : F3;
  2834 : 02;
  2835 : FA;
  2836 : F8;
  2837 : 17;
  2838 : FD;
  2839 : FB;
  2840 : EF;
  2841 : 07;
  2842 : 06;
  2843 : 0B;
  2844 : 00;
  2845 : 00;
  2846 : 0B;
  2847 : FC;
  2848 : 01;
  2849 : FC;
  2850 : 06;
  2851 : 0F;
  2852 : FF;
  2853 : 05;
  2854 : 06;
  2855 : 02;
  2856 : 01;
  2857 : 06;
  2858 : EB;
  2859 : 07;
  2860 : 09;
  2861 : 0F;
  2862 : FD;
  2863 : 04;
  2864 : 0D;
  2865 : FD;
  2866 : F9;
  2867 : F4;
  2868 : F8;
  2869 : 00;
  2870 : 11;
  2871 : FC;
  2872 : FE;
  2873 : FA;
  2874 : 03;
  2875 : FE;
  2876 : FA;
  2877 : 03;
  2878 : 00;
  2879 : 0B;
  2880 : 06;
  2881 : 05;
  2882 : 0B;
  2883 : FA;
  2884 : F6;
  2885 : F0;
  2886 : 0C;
  2887 : 06;
  2888 : FA;
  2889 : 04;
  2890 : 0D;
  2891 : ED;
  2892 : 20;
  2893 : 07;
  2894 : 0B;
  2895 : F3;
  2896 : 11;
  2897 : EA;
  2898 : E4;
  2899 : 0C;
  2900 : 0B;
  2901 : 19;
  2902 : FA;
  2903 : E8;
  2904 : 01;
  2905 : FD;
  2906 : 0B;
  2907 : 1B;
  2908 : 00;
  2909 : 16;
  2910 : 03;
  2911 : F6;
  2912 : 02;
  2913 : 07;
  2914 : 08;
  2915 : 1B;
  2916 : 05;
  2917 : F7;
  2918 : EA;
  2919 : 19;
  2920 : EB;
  2921 : FF;
  2922 : FF;
  2923 : FF;
  2924 : 07;
  2925 : 0C;
  2926 : 01;
  2927 : 02;
  2928 : FF;
  2929 : FA;
  2930 : FC;
  2931 : 00;
  2932 : F4;
  2933 : 02;
  2934 : 16;
  2935 : F3;
  2936 : FE;
  2937 : E7;
  2938 : 07;
  2939 : 06;
  2940 : 03;
  2941 : FB;
  2942 : FE;
  2943 : F1;
  2944 : 05;
  2945 : FE;
  2946 : 0F;
  2947 : 03;
  2948 : F0;
  2949 : F5;
  2950 : 07;
  2951 : 08;
  2952 : F8;
  2953 : FA;
  2954 : 0B;
  2955 : F2;
  2956 : 14;
  2957 : 03;
  2958 : 0A;
  2959 : E6;
  2960 : 10;
  2961 : EE;
  2962 : F5;
  2963 : 0E;
  2964 : 05;
  2965 : 18;
  2966 : FA;
  2967 : EF;
  2968 : FA;
  2969 : FC;
  2970 : FE;
  2971 : 0E;
  2972 : 06;
  2973 : 1A;
  2974 : 0C;
  2975 : F1;
  2976 : 04;
  2977 : 01;
  2978 : 05;
  2979 : 22;
  2980 : FE;
  2981 : 00;
  2982 : F0;
  2983 : 1C;
  2984 : F0;
  2985 : 04;
  2986 : FB;
  2987 : 01;
  2988 : FC;
  2989 : 0E;
  2990 : 08;
  2991 : 00;
  2992 : FB;
  2993 : 04;
  2994 : 01;
  2995 : FE;
  2996 : F4;
  2997 : FC;
  2998 : 11;
  2999 : FF;
  3000 : 00;
  3001 : EC;
  3002 : 09;
  3003 : 01;
  3004 : 05;
  3005 : F3;
  3006 : 05;
  3007 : EB;
  3008 : 0D;
  3009 : 08;
  3010 : 07;
  3011 : 07;
  3012 : FE;
  3013 : EF;
  3014 : 0C;
  3015 : 00;
  3016 : FE;
  3017 : F5;
  3018 : 0C;
  3019 : FF;
  3020 : 1E;
  3021 : 02;
  3022 : 05;
  3023 : E6;
  3024 : 0A;
  3025 : EC;
  3026 : ED;
  3027 : 11;
  3028 : FE;
  3029 : 12;
  3030 : F9;
  3031 : F5;
  3032 : FD;
  3033 : 03;
  3034 : 07;
  3035 : 07;
  3036 : 00;
  3037 : 08;
  3038 : 02;
  3039 : F6;
  3040 : 06;
  3041 : FA;
  3042 : 07;
  3043 : 10;
  3044 : 0D;
  3045 : 00;
  3046 : F9;
  3047 : 15;
  3048 : F0;
  3049 : 00;
  3050 : F1;
  3051 : 06;
  3052 : 0B;
  3053 : 04;
  3054 : FF;
  3055 : FE;
  3056 : FE;
  3057 : FD;
  3058 : F3;
  3059 : FD;
  3060 : FD;
  3061 : F7;
  3062 : 13;
  3063 : F8;
  3064 : 04;
  3065 : F3;
  3066 : 0B;
  3067 : 02;
  3068 : 09;
  3069 : 08;
  3070 : FD;
  3071 : F4;
  3072 : FE;
  3073 : 09;
  3074 : FF;
  3075 : FC;
  3076 : EF;
  3077 : EE;
  3078 : 04;
  3079 : 0A;
  3080 : 0E;
  3081 : F6;
  3082 : 09;
  3083 : 0B;
  3084 : 19;
  3085 : 03;
  3086 : FB;
  3087 : F6;
  3088 : 06;
  3089 : FE;
  3090 : 10;
  3091 : 03;
  3092 : FD;
  3093 : 10;
  3094 : FC;
  3095 : 04;
  3096 : 03;
  3097 : 04;
  3098 : F1;
  3099 : 12;
  3100 : FF;
  3101 : 0F;
  3102 : FD;
  3103 : FD;
  3104 : 06;
  3105 : F9;
  3106 : F7;
  3107 : 0C;
  3108 : FA;
  3109 : 0B;
  3110 : 08;
  3111 : 08;
  3112 : F7;
  3113 : FA;
  3114 : FD;
  3115 : 08;
  3116 : F4;
  3117 : 11;
  3118 : 08;
  3119 : 05;
  3120 : 08;
  3121 : 06;
  3122 : 0C;
  3123 : 03;
  3124 : 06;
  3125 : EE;
  3126 : 05;
  3127 : F9;
  3128 : 03;
  3129 : F3;
  3130 : FB;
  3131 : F5;
  3132 : F9;
  3133 : FF;
  3134 : FE;
  3135 : FF;
  3136 : 05;
  3137 : 08;
  3138 : 07;
  3139 : F8;
  3140 : F4;
  3141 : ED;
  3142 : 07;
  3143 : 0E;
  3144 : 0D;
  3145 : F7;
  3146 : 0E;
  3147 : 07;
  3148 : 0C;
  3149 : FE;
  3150 : 00;
  3151 : F4;
  3152 : 13;
  3153 : FE;
  3154 : 07;
  3155 : 03;
  3156 : F5;
  3157 : 09;
  3158 : FE;
  3159 : FE;
  3160 : FD;
  3161 : 0A;
  3162 : F1;
  3163 : 07;
  3164 : 02;
  3165 : 18;
  3166 : FE;
  3167 : FF;
  3168 : 06;
  3169 : FB;
  3170 : 02;
  3171 : 05;
  3172 : 03;
  3173 : 07;
  3174 : 03;
  3175 : 0A;
  3176 : F6;
  3177 : 03;
  3178 : F8;
  3179 : 07;
  3180 : FC;
  3181 : 0D;
  3182 : FA;
  3183 : FA;
  3184 : 08;
  3185 : 00;
  3186 : 09;
  3187 : 06;
  3188 : 04;
  3189 : E8;
  3190 : 05;
  3191 : F9;
  3192 : 01;
  3193 : F3;
  3194 : 02;
  3195 : F2;
  3196 : 03;
  3197 : 00;
  3198 : FE;
  3199 : 0B;
  3200 : 03;
  3201 : 01;
  3202 : 09;
  3203 : 03;
  3204 : F5;
  3205 : F0;
  3206 : 0B;
  3207 : 06;
  3208 : 0B;
  3209 : 01;
  3210 : 06;
  3211 : 07;
  3212 : 0E;
  3213 : 07;
  3214 : F8;
  3215 : EE;
  3216 : 13;
  3217 : 05;
  3218 : 12;
  3219 : 00;
  3220 : 00;
  3221 : 15;
  3222 : 06;
  3223 : FE;
  3224 : F8;
  3225 : FA;
  3226 : ED;
  3227 : 16;
  3228 : F9;
  3229 : 13;
  3230 : FF;
  3231 : FB;
  3232 : 02;
  3233 : 06;
  3234 : F8;
  3235 : 16;
  3236 : FD;
  3237 : 0A;
  3238 : 0D;
  3239 : 0C;
  3240 : F9;
  3241 : FE;
  3242 : FC;
  3243 : FC;
  3244 : 04;
  3245 : 19;
  3246 : FD;
  3247 : FC;
  3248 : 05;
  3249 : 05;
  3250 : 0A;
  3251 : F7;
  3252 : 05;
  3253 : F2;
  3254 : 0F;
  3255 : F2;
  3256 : 00;
  3257 : EF;
  3258 : 07;
  3259 : FC;
  3260 : F8;
  3261 : 02;
  3262 : 00;
  3263 : FF;
  3264 : FE;
  3265 : 14;
  3266 : 0B;
  3267 : 04;
  3268 : EC;
  3269 : F0;
  3270 : F6;
  3271 : 08;
  3272 : 05;
  3273 : FF;
  3274 : 0C;
  3275 : 0A;
  3276 : 14;
  3277 : 04;
  3278 : FA;
  3279 : 02;
  3280 : 19;
  3281 : 0D;
  3282 : 03;
  3283 : FA;
  3284 : FE;
  3285 : 16;
  3286 : 02;
  3287 : 06;
  3288 : FC;
  3289 : FE;
  3290 : EF;
  3291 : 18;
  3292 : FA;
  3293 : 1B;
  3294 : FA;
  3295 : FC;
  3296 : 07;
  3297 : 05;
  3298 : FB;
  3299 : 00;
  3300 : F4;
  3301 : 07;
  3302 : 03;
  3303 : 06;
  3304 : F9;
  3305 : 00;
  3306 : F1;
  3307 : 04;
  3308 : EF;
  3309 : 03;
  3310 : FF;
  3311 : 0D;
  3312 : 06;
  3313 : 05;
  3314 : 12;
  3315 : FF;
  3316 : EF;
  3317 : FD;
  3318 : FB;
  3319 : F8;
  3320 : F8;
  3321 : F7;
  3322 : FA;
  3323 : F7;
  3324 : FA;
  3325 : F8;
  3326 : 06;
  3327 : 01;
  3328 : 07;
  3329 : 05;
  3330 : 04;
  3331 : FB;
  3332 : 05;
  3333 : 0B;
  3334 : FD;
  3335 : FF;
  3336 : 11;
  3337 : 01;
  3338 : 0B;
  3339 : 15;
  3340 : 09;
  3341 : 01;
  3342 : FC;
  3343 : 0F;
  3344 : 0E;
  3345 : 08;
  3346 : 0A;
  3347 : FA;
  3348 : EB;
  3349 : 13;
  3350 : 08;
  3351 : 04;
  3352 : F0;
  3353 : FF;
  3354 : 00;
  3355 : 0D;
  3356 : FF;
  3357 : 09;
  3358 : 02;
  3359 : FC;
  3360 : FF;
  3361 : FB;
  3362 : FF;
  3363 : 09;
  3364 : FF;
  3365 : 03;
  3366 : 0F;
  3367 : 02;
  3368 : 08;
  3369 : 07;
  3370 : EE;
  3371 : 01;
  3372 : FD;
  3373 : 12;
  3374 : 03;
  3375 : 0D;
  3376 : 0C;
  3377 : 04;
  3378 : 08;
  3379 : FF;
  3380 : EF;
  3381 : 00;
  3382 : 0F;
  3383 : F9;
  3384 : FB;
  3385 : 00;
  3386 : FB;
  3387 : FC;
  3388 : F5;
  3389 : 00;
  3390 : FF;
  3391 : 04;
  3392 : 05;
  3393 : 0E;
  3394 : 03;
  3395 : 00;
  3396 : E7;
  3397 : ED;
  3398 : 06;
  3399 : 0E;
  3400 : 06;
  3401 : FE;
  3402 : 04;
  3403 : 03;
  3404 : 1B;
  3405 : 07;
  3406 : 03;
  3407 : EA;
  3408 : 12;
  3409 : 0A;
  3410 : 05;
  3411 : 0B;
  3412 : 04;
  3413 : 1C;
  3414 : FD;
  3415 : FD;
  3416 : 00;
  3417 : F7;
  3418 : EB;
  3419 : 10;
  3420 : 03;
  3421 : 1B;
  3422 : F6;
  3423 : FB;
  3424 : 14;
  3425 : F8;
  3426 : 06;
  3427 : 06;
  3428 : FD;
  3429 : 08;
  3430 : 05;
  3431 : 0B;
  3432 : EE;
  3433 : FD;
  3434 : F3;
  3435 : 08;
  3436 : FB;
  3437 : 0B;
  3438 : 04;
  3439 : 05;
  3440 : 03;
  3441 : 00;
  3442 : 06;
  3443 : 01;
  3444 : FE;
  3445 : EE;
  3446 : 00;
  3447 : F4;
  3448 : FF;
  3449 : FE;
  3450 : FD;
  3451 : 02;
  3452 : 01;
  3453 : FD;
  3454 : 06;
  3455 : 07;
  3456 : 0C;
  3457 : FD;
  3458 : FF;
  3459 : FD;
  3460 : F2;
  3461 : E6;
  3462 : 03;
  3463 : 0F;
  3464 : 07;
  3465 : F8;
  3466 : 0B;
  3467 : 00;
  3468 : 18;
  3469 : 03;
  3470 : 04;
  3471 : EF;
  3472 : 0C;
  3473 : F6;
  3474 : 08;
  3475 : 0B;
  3476 : FF;
  3477 : 0C;
  3478 : FB;
  3479 : 04;
  3480 : FB;
  3481 : FF;
  3482 : F0;
  3483 : 08;
  3484 : FF;
  3485 : 17;
  3486 : FF;
  3487 : 01;
  3488 : 06;
  3489 : FA;
  3490 : FB;
  3491 : 10;
  3492 : FE;
  3493 : 07;
  3494 : FC;
  3495 : 08;
  3496 : F0;
  3497 : 04;
  3498 : FE;
  3499 : FB;
  3500 : F8;
  3501 : 11;
  3502 : 04;
  3503 : 01;
  3504 : 02;
  3505 : FF;
  3506 : 0B;
  3507 : FF;
  3508 : 01;
  3509 : FA;
  3510 : 0A;
  3511 : F2;
  3512 : F7;
  3513 : F2;
  3514 : 02;
  3515 : F2;
  3516 : 00;
  3517 : F6;
  3518 : 02;
  3519 : FF;
  3520 : 0A;
  3521 : 01;
  3522 : 07;
  3523 : FE;
  3524 : F2;
  3525 : 00;
  3526 : 14;
  3527 : 10;
  3528 : F3;
  3529 : 0D;
  3530 : 1D;
  3531 : F2;
  3532 : 10;
  3533 : FB;
  3534 : FA;
  3535 : F3;
  3536 : 09;
  3537 : 08;
  3538 : EC;
  3539 : FB;
  3540 : 0C;
  3541 : 0C;
  3542 : FF;
  3543 : EE;
  3544 : 09;
  3545 : 12;
  3546 : 0A;
  3547 : 16;
  3548 : FF;
  3549 : 22;
  3550 : 0C;
  3551 : F4;
  3552 : F9;
  3553 : 00;
  3554 : F8;
  3555 : 23;
  3556 : FF;
  3557 : 03;
  3558 : EE;
  3559 : 17;
  3560 : EC;
  3561 : FA;
  3562 : FA;
  3563 : 07;
  3564 : F4;
  3565 : 11;
  3566 : 00;
  3567 : 0A;
  3568 : FD;
  3569 : FB;
  3570 : 04;
  3571 : 0A;
  3572 : FC;
  3573 : 01;
  3574 : 09;
  3575 : FA;
  3576 : 03;
  3577 : DC;
  3578 : 0C;
  3579 : FA;
  3580 : 02;
  3581 : FA;
  3582 : F9;
  3583 : FB;
  3584 : 01;
  3585 : FD;
  3586 : F6;
  3587 : 01;
  3588 : F6;
  3589 : EB;
  3590 : FD;
  3591 : 11;
  3592 : 00;
  3593 : 01;
  3594 : 05;
  3595 : 05;
  3596 : 11;
  3597 : 03;
  3598 : 00;
  3599 : F5;
  3600 : FD;
  3601 : 0A;
  3602 : 04;
  3603 : FD;
  3604 : FF;
  3605 : 09;
  3606 : FD;
  3607 : F7;
  3608 : 06;
  3609 : 0C;
  3610 : EC;
  3611 : 10;
  3612 : 01;
  3613 : 07;
  3614 : 09;
  3615 : EE;
  3616 : FF;
  3617 : F8;
  3618 : F6;
  3619 : 0C;
  3620 : FA;
  3621 : FF;
  3622 : 00;
  3623 : 04;
  3624 : F1;
  3625 : 02;
  3626 : 00;
  3627 : 01;
  3628 : 01;
  3629 : 06;
  3630 : FA;
  3631 : 03;
  3632 : 01;
  3633 : FA;
  3634 : 0B;
  3635 : 08;
  3636 : F6;
  3637 : F1;
  3638 : 09;
  3639 : F7;
  3640 : F7;
  3641 : F2;
  3642 : 04;
  3643 : 01;
  3644 : F7;
  3645 : 03;
  3646 : FC;
  3647 : 11;
  3648 : 00;
  3649 : 0B;
  3650 : F3;
  3651 : FB;
  3652 : F7;
  3653 : ED;
  3654 : 02;
  3655 : 10;
  3656 : 00;
  3657 : FD;
  3658 : 06;
  3659 : 0D;
  3660 : 07;
  3661 : 00;
  3662 : FA;
  3663 : FB;
  3664 : 05;
  3665 : 06;
  3666 : 0B;
  3667 : 02;
  3668 : 04;
  3669 : 05;
  3670 : FC;
  3671 : F3;
  3672 : 04;
  3673 : 14;
  3674 : FD;
  3675 : 16;
  3676 : FE;
  3677 : 12;
  3678 : 09;
  3679 : FF;
  3680 : 01;
  3681 : F9;
  3682 : FB;
  3683 : 08;
  3684 : F5;
  3685 : 07;
  3686 : 02;
  3687 : FA;
  3688 : F2;
  3689 : F9;
  3690 : F8;
  3691 : 04;
  3692 : FD;
  3693 : 12;
  3694 : 05;
  3695 : F8;
  3696 : FA;
  3697 : FD;
  3698 : 06;
  3699 : 0A;
  3700 : F7;
  3701 : FF;
  3702 : 07;
  3703 : F0;
  3704 : FE;
  3705 : F2;
  3706 : 01;
  3707 : 02;
  3708 : 02;
  3709 : 0B;
  3710 : 06;
  3711 : 10;
  3712 : 01;
  3713 : 0B;
  3714 : F4;
  3715 : 03;
  3716 : ED;
  3717 : E6;
  3718 : FE;
  3719 : 16;
  3720 : 13;
  3721 : F7;
  3722 : 12;
  3723 : 06;
  3724 : 12;
  3725 : 05;
  3726 : F1;
  3727 : F3;
  3728 : 06;
  3729 : 08;
  3730 : 0E;
  3731 : F7;
  3732 : F5;
  3733 : 09;
  3734 : 06;
  3735 : 05;
  3736 : F9;
  3737 : 0F;
  3738 : E5;
  3739 : 10;
  3740 : FF;
  3741 : 16;
  3742 : FF;
  3743 : FF;
  3744 : 06;
  3745 : FB;
  3746 : FE;
  3747 : 0E;
  3748 : FF;
  3749 : 0B;
  3750 : 0A;
  3751 : FD;
  3752 : F2;
  3753 : 05;
  3754 : F6;
  3755 : 02;
  3756 : EE;
  3757 : 15;
  3758 : FD;
  3759 : FF;
  3760 : 08;
  3761 : FF;
  3762 : 0A;
  3763 : 09;
  3764 : 00;
  3765 : F7;
  3766 : 06;
  3767 : E7;
  3768 : FF;
  3769 : F2;
  3770 : F8;
  3771 : FF;
  3772 : F6;
  3773 : 13;
  3774 : 03;
  3775 : 15;
  3776 : 02;
  3777 : 06;
  3778 : F8;
  3779 : 04;
  3780 : EF;
  3781 : E5;
  3782 : 09;
  3783 : 0D;
  3784 : 0C;
  3785 : FC;
  3786 : 12;
  3787 : 12;
  3788 : 12;
  3789 : FE;
  3790 : F8;
  3791 : F6;
  3792 : 03;
  3793 : 06;
  3794 : 13;
  3795 : FE;
  3796 : FA;
  3797 : 0E;
  3798 : 07;
  3799 : F7;
  3800 : 04;
  3801 : 0F;
  3802 : EA;
  3803 : 13;
  3804 : FF;
  3805 : 10;
  3806 : 07;
  3807 : 04;
  3808 : 02;
  3809 : 05;
  3810 : FD;
  3811 : 0C;
  3812 : F7;
  3813 : 0B;
  3814 : 07;
  3815 : FF;
  3816 : EE;
  3817 : 01;
  3818 : F8;
  3819 : 00;
  3820 : F5;
  3821 : 10;
  3822 : FD;
  3823 : F6;
  3824 : 08;
  3825 : FA;
  3826 : 11;
  3827 : 02;
  3828 : 03;
  3829 : E9;
  3830 : 0A;
  3831 : F2;
  3832 : FC;
  3833 : FE;
  3834 : 05;
  3835 : 00;
  3836 : F8;
  3837 : 0E;
  3838 : FD;
  3839 : 0C;
  3840 : 0A;
  3841 : 02;
  3842 : 02;
  3843 : 04;
  3844 : 03;
  3845 : 04;
  3846 : F6;
  3847 : 03;
  3848 : 0E;
  3849 : FB;
  3850 : 0D;
  3851 : 0A;
  3852 : 0B;
  3853 : 01;
  3854 : EC;
  3855 : 02;
  3856 : 12;
  3857 : 04;
  3858 : 1B;
  3859 : F3;
  3860 : ED;
  3861 : 11;
  3862 : FB;
  3863 : FD;
  3864 : EE;
  3865 : 04;
  3866 : F3;
  3867 : 17;
  3868 : F8;
  3869 : 03;
  3870 : 02;
  3871 : F9;
  3872 : 07;
  3873 : 02;
  3874 : 00;
  3875 : 06;
  3876 : F9;
  3877 : 0C;
  3878 : 14;
  3879 : 07;
  3880 : F8;
  3881 : FA;
  3882 : EE;
  3883 : FB;
  3884 : FE;
  3885 : 13;
  3886 : 07;
  3887 : 01;
  3888 : 05;
  3889 : 04;
  3890 : 04;
  3891 : 05;
  3892 : F9;
  3893 : FA;
  3894 : 09;
  3895 : 00;
  3896 : 02;
  3897 : 04;
  3898 : 03;
  3899 : 03;
  3900 : EB;
  3901 : 01;
  3902 : 00;
  3903 : 03;
  3904 : F8;
  3905 : 09;
  3906 : FF;
  3907 : FF;
  3908 : EA;
  3909 : E0;
  3910 : FF;
  3911 : 0B;
  3912 : 0E;
  3913 : F1;
  3914 : 10;
  3915 : 0E;
  3916 : 11;
  3917 : 00;
  3918 : F2;
  3919 : E7;
  3920 : 01;
  3921 : 0B;
  3922 : 0B;
  3923 : 02;
  3924 : 00;
  3925 : 08;
  3926 : 07;
  3927 : F3;
  3928 : FD;
  3929 : 0C;
  3930 : E3;
  3931 : 18;
  3932 : FF;
  3933 : 09;
  3934 : 07;
  3935 : F7;
  3936 : 0A;
  3937 : 08;
  3938 : FC;
  3939 : 11;
  3940 : FE;
  3941 : 09;
  3942 : 0C;
  3943 : 03;
  3944 : F3;
  3945 : F9;
  3946 : F4;
  3947 : 00;
  3948 : F2;
  3949 : 0F;
  3950 : FF;
  3951 : FE;
  3952 : 07;
  3953 : FD;
  3954 : 0F;
  3955 : 03;
  3956 : FB;
  3957 : F0;
  3958 : 0C;
  3959 : F2;
  3960 : F7;
  3961 : F7;
  3962 : 04;
  3963 : FC;
  3964 : FA;
  3965 : 0D;
  3966 : F8;
  3967 : 0C;
  3968 : 00;
  3969 : 00;
  3970 : F8;
  3971 : 01;
  3972 : F0;
  3973 : E6;
  3974 : 02;
  3975 : 0F;
  3976 : 0A;
  3977 : 01;
  3978 : 10;
  3979 : 07;
  3980 : 0C;
  3981 : FA;
  3982 : FA;
  3983 : F6;
  3984 : 04;
  3985 : 08;
  3986 : 08;
  3987 : 01;
  3988 : FD;
  3989 : 00;
  3990 : 00;
  3991 : F5;
  3992 : 01;
  3993 : 05;
  3994 : EB;
  3995 : 18;
  3996 : 07;
  3997 : 07;
  3998 : 08;
  3999 : 01;
  4000 : 02;
  4001 : 06;
  4002 : FF;
  4003 : 01;
  4004 : 00;
  4005 : 0D;
  4006 : 03;
  4007 : FD;
  4008 : F9;
  4009 : FF;
  4010 : 01;
  4011 : 01;
  4012 : FA;
  4013 : 06;
  4014 : 00;
  4015 : FD;
  4016 : 08;
  4017 : 06;
  4018 : 0C;
  4019 : 03;
  4020 : F9;
  4021 : F3;
  4022 : 08;
  4023 : EB;
  4024 : F8;
  4025 : FA;
  4026 : F9;
  4027 : 02;
  4028 : F2;
  4029 : 0C;
  4030 : FA;
  4031 : 08;
  4032 : FB;
  4033 : 0D;
  4034 : 02;
  4035 : 04;
  4036 : F4;
  4037 : E9;
  4038 : 03;
  4039 : 0D;
  4040 : 16;
  4041 : F1;
  4042 : 07;
  4043 : 1B;
  4044 : 0E;
  4045 : 07;
  4046 : EE;
  4047 : F0;
  4048 : 12;
  4049 : 10;
  4050 : 10;
  4051 : F9;
  4052 : EA;
  4053 : 0B;
  4054 : 00;
  4055 : FD;
  4056 : F6;
  4057 : 0D;
  4058 : E7;
  4059 : 19;
  4060 : 05;
  4061 : 09;
  4062 : 02;
  4063 : 0E;
  4064 : 0D;
  4065 : 04;
  4066 : 01;
  4067 : 01;
  4068 : EF;
  4069 : 1C;
  4070 : 13;
  4071 : 06;
  4072 : F0;
  4073 : 05;
  4074 : F2;
  4075 : FE;
  4076 : F9;
  4077 : 07;
  4078 : 04;
  4079 : F4;
  4080 : 0D;
  4081 : FA;
  4082 : 14;
  4083 : 02;
  4084 : F8;
  4085 : F0;
  4086 : FC;
  4087 : EB;
  4088 : 00;
  4089 : F6;
  4090 : EE;
  4091 : F7;
  4092 : FE;
  4093 : 0C;
  4094 : 02;
  4095 : 07;
  4096 : FE;
  4097 : 07;
  4098 : F8;
  4099 : FC;
  4100 : FD;
  4101 : F6;
  4102 : 01;
  4103 : 0C;
  4104 : 03;
  4105 : FC;
  4106 : 16;
  4107 : 0A;
  4108 : 06;
  4109 : 05;
  4110 : F3;
  4111 : FD;
  4112 : 02;
  4113 : 1F;
  4114 : 01;
  4115 : F3;
  4116 : F6;
  4117 : F6;
  4118 : 07;
  4119 : F9;
  4120 : 0F;
  4121 : 03;
  4122 : F7;
  4123 : 0C;
  4124 : 07;
  4125 : F7;
  4126 : 0A;
  4127 : F3;
  4128 : FF;
  4129 : FD;
  4130 : 03;
  4131 : 07;
  4132 : 0B;
  4133 : FD;
  4134 : 02;
  4135 : 00;
  4136 : 01;
  4137 : 05;
  4138 : F6;
  4139 : 03;
  4140 : F9;
  4141 : 04;
  4142 : 02;
  4143 : 01;
  4144 : 08;
  4145 : 01;
  4146 : FE;
  4147 : 0C;
  4148 : F8;
  4149 : F2;
  4150 : 0C;
  4151 : ED;
  4152 : F6;
  4153 : F5;
  4154 : FC;
  4155 : 05;
  4156 : 05;
  4157 : 0D;
  4158 : FC;
  4159 : 17;
  4160 : FB;
  4161 : 06;
  4162 : F0;
  4163 : 07;
  4164 : FB;
  4165 : E5;
  4166 : FC;
  4167 : 04;
  4168 : F7;
  4169 : FC;
  4170 : 11;
  4171 : 10;
  4172 : 0D;
  4173 : FF;
  4174 : FA;
  4175 : F8;
  4176 : 0A;
  4177 : 1D;
  4178 : 05;
  4179 : F7;
  4180 : FD;
  4181 : 00;
  4182 : 04;
  4183 : F5;
  4184 : 13;
  4185 : 0A;
  4186 : FB;
  4187 : 09;
  4188 : 09;
  4189 : F9;
  4190 : 08;
  4191 : F9;
  4192 : F8;
  4193 : 03;
  4194 : 02;
  4195 : 05;
  4196 : 07;
  4197 : FA;
  4198 : 03;
  4199 : 02;
  4200 : F4;
  4201 : F8;
  4202 : FF;
  4203 : FE;
  4204 : 01;
  4205 : 0E;
  4206 : FC;
  4207 : 06;
  4208 : 05;
  4209 : FB;
  4210 : FE;
  4211 : 04;
  4212 : F7;
  4213 : F0;
  4214 : 07;
  4215 : F7;
  4216 : FD;
  4217 : 04;
  4218 : 08;
  4219 : 01;
  4220 : 09;
  4221 : 00;
  4222 : FC;
  4223 : 19;
  4224 : FB;
  4225 : 05;
  4226 : EA;
  4227 : F9;
  4228 : FD;
  4229 : F3;
  4230 : FA;
  4231 : 0E;
  4232 : 03;
  4233 : FD;
  4234 : 17;
  4235 : 0F;
  4236 : 09;
  4237 : 03;
  4238 : EE;
  4239 : 00;
  4240 : 09;
  4241 : 22;
  4242 : 0F;
  4243 : F7;
  4244 : F1;
  4245 : F6;
  4246 : 05;
  4247 : F3;
  4248 : 0B;
  4249 : 0D;
  4250 : FB;
  4251 : 17;
  4252 : 04;
  4253 : F7;
  4254 : 15;
  4255 : F8;
  4256 : FB;
  4257 : 05;
  4258 : 03;
  4259 : FE;
  4260 : 08;
  4261 : FA;
  4262 : 02;
  4263 : EE;
  4264 : 02;
  4265 : 00;
  4266 : F3;
  4267 : FC;
  4268 : F1;
  4269 : 09;
  4270 : 01;
  4271 : F9;
  4272 : 08;
  4273 : 02;
  4274 : 07;
  4275 : 07;
  4276 : FD;
  4277 : EE;
  4278 : FE;
  4279 : EE;
  4280 : FB;
  4281 : FB;
  4282 : F7;
  4283 : 05;
  4284 : FB;
  4285 : 03;
  4286 : 00;
  4287 : 1A;
  4288 : FF;
  4289 : 03;
  4290 : F5;
  4291 : 01;
  4292 : F2;
  4293 : E6;
  4294 : 07;
  4295 : 0C;
  4296 : 08;
  4297 : FC;
  4298 : 18;
  4299 : 03;
  4300 : 12;
  4301 : 01;
  4302 : F3;
  4303 : F8;
  4304 : FB;
  4305 : 13;
  4306 : 0E;
  4307 : FC;
  4308 : 00;
  4309 : 02;
  4310 : 06;
  4311 : EF;
  4312 : 02;
  4313 : 0F;
  4314 : F7;
  4315 : 1B;
  4316 : FF;
  4317 : FF;
  4318 : 0F;
  4319 : EF;
  4320 : FE;
  4321 : 01;
  4322 : 00;
  4323 : 07;
  4324 : 01;
  4325 : 06;
  4326 : FF;
  4327 : 00;
  4328 : F2;
  4329 : 05;
  4330 : 01;
  4331 : 02;
  4332 : FA;
  4333 : 08;
  4334 : F9;
  4335 : 0E;
  4336 : 02;
  4337 : 07;
  4338 : 09;
  4339 : 0E;
  4340 : 02;
  4341 : F9;
  4342 : FF;
  4343 : ED;
  4344 : FE;
  4345 : F9;
  4346 : 0B;
  4347 : 04;
  4348 : FF;
  4349 : 0D;
  4350 : 06;
  4351 : 12;
  4352 : 0B;
  4353 : 04;
  4354 : 00;
  4355 : FA;
  4356 : 01;
  4357 : 00;
  4358 : F3;
  4359 : 02;
  4360 : 02;
  4361 : 06;
  4362 : 0A;
  4363 : 10;
  4364 : 01;
  4365 : 01;
  4366 : F0;
  4367 : 08;
  4368 : 08;
  4369 : 12;
  4370 : 10;
  4371 : F4;
  4372 : EF;
  4373 : 12;
  4374 : FA;
  4375 : FE;
  4376 : FA;
  4377 : 12;
  4378 : F5;
  4379 : 12;
  4380 : 06;
  4381 : FB;
  4382 : 0E;
  4383 : EC;
  4384 : FF;
  4385 : FF;
  4386 : FE;
  4387 : 09;
  4388 : F7;
  4389 : 02;
  4390 : 10;
  4391 : FB;
  4392 : F9;
  4393 : 04;
  4394 : F4;
  4395 : 05;
  4396 : F7;
  4397 : 13;
  4398 : FD;
  4399 : 04;
  4400 : 05;
  4401 : 06;
  4402 : FF;
  4403 : FD;
  4404 : F1;
  4405 : FE;
  4406 : 10;
  4407 : F2;
  4408 : FB;
  4409 : 01;
  4410 : 09;
  4411 : 04;
  4412 : F7;
  4413 : 03;
  4414 : FC;
  4415 : 1D;
  4416 : FB;
  4417 : 01;
  4418 : E8;
  4419 : 00;
  4420 : FA;
  4421 : EB;
  4422 : FB;
  4423 : 15;
  4424 : 04;
  4425 : 08;
  4426 : 19;
  4427 : 0A;
  4428 : 08;
  4429 : FC;
  4430 : FC;
  4431 : F5;
  4432 : 07;
  4433 : 1F;
  4434 : 0C;
  4435 : EF;
  4436 : F5;
  4437 : F9;
  4438 : FE;
  4439 : EC;
  4440 : 10;
  4441 : 15;
  4442 : FA;
  4443 : 15;
  4444 : FE;
  4445 : 06;
  4446 : 16;
  4447 : F6;
  4448 : FF;
  4449 : 00;
  4450 : 04;
  4451 : 04;
  4452 : FA;
  4453 : 08;
  4454 : 08;
  4455 : FC;
  4456 : FE;
  4457 : 05;
  4458 : FC;
  4459 : 07;
  4460 : F6;
  4461 : 10;
  4462 : 05;
  4463 : 05;
  4464 : FD;
  4465 : FC;
  4466 : 09;
  4467 : 0E;
  4468 : F8;
  4469 : F5;
  4470 : FF;
  4471 : EF;
  4472 : FC;
  4473 : F8;
  4474 : FE;
  4475 : 05;
  4476 : FD;
  4477 : 0E;
  4478 : FE;
  4479 : 1D;
  4480 : FB;
  4481 : 01;
  4482 : F2;
  4483 : F9;
  4484 : F4;
  4485 : EE;
  4486 : FE;
  4487 : 09;
  4488 : FC;
  4489 : FF;
  4490 : 0F;
  4491 : 06;
  4492 : 0E;
  4493 : 02;
  4494 : FE;
  4495 : F5;
  4496 : FF;
  4497 : 18;
  4498 : 03;
  4499 : F6;
  4500 : F4;
  4501 : 01;
  4502 : FA;
  4503 : EF;
  4504 : 03;
  4505 : 09;
  4506 : F3;
  4507 : 08;
  4508 : 02;
  4509 : 00;
  4510 : 11;
  4511 : F6;
  4512 : FA;
  4513 : 02;
  4514 : FC;
  4515 : FF;
  4516 : 08;
  4517 : 00;
  4518 : 09;
  4519 : F1;
  4520 : 00;
  4521 : 04;
  4522 : FB;
  4523 : FC;
  4524 : F7;
  4525 : 01;
  4526 : 08;
  4527 : FD;
  4528 : 00;
  4529 : 05;
  4530 : 0E;
  4531 : 06;
  4532 : 01;
  4533 : EC;
  4534 : 00;
  4535 : EB;
  4536 : FE;
  4537 : FD;
  4538 : 00;
  4539 : FE;
  4540 : FA;
  4541 : 00;
  4542 : 06;
  4543 : 1A;
  4544 : 00;
  4545 : 07;
  4546 : EE;
  4547 : 04;
  4548 : FD;
  4549 : E6;
  4550 : 04;
  4551 : 0D;
  4552 : FC;
  4553 : FF;
  4554 : 0B;
  4555 : 01;
  4556 : FF;
  4557 : F8;
  4558 : FA;
  4559 : F9;
  4560 : F7;
  4561 : 0A;
  4562 : 07;
  4563 : F7;
  4564 : 08;
  4565 : FE;
  4566 : FB;
  4567 : EE;
  4568 : 08;
  4569 : 14;
  4570 : 01;
  4571 : 1B;
  4572 : 05;
  4573 : 09;
  4574 : 15;
  4575 : E7;
  4576 : FB;
  4577 : 06;
  4578 : FB;
  4579 : 05;
  4580 : 0C;
  4581 : FD;
  4582 : 03;
  4583 : FE;
  4584 : F7;
  4585 : 04;
  4586 : 0B;
  4587 : 05;
  4588 : F8;
  4589 : 14;
  4590 : FB;
  4591 : 02;
  4592 : 03;
  4593 : FF;
  4594 : FF;
  4595 : 05;
  4596 : F6;
  4597 : F4;
  4598 : 0B;
  4599 : EF;
  4600 : 04;
  4601 : F9;
  4602 : 10;
  4603 : 0A;
  4604 : F5;
  4605 : 03;
  4606 : FF;
  4607 : 13;
  4608 : FC;
  4609 : FE;
  4610 : FC;
  4611 : 02;
  4612 : FF;
  4613 : F5;
  4614 : 07;
  4615 : 05;
  4616 : F8;
  4617 : 0F;
  4618 : 09;
  4619 : 0D;
  4620 : 0F;
  4621 : 00;
  4622 : FA;
  4623 : FD;
  4624 : 06;
  4625 : 1D;
  4626 : 03;
  4627 : FC;
  4628 : F1;
  4629 : FF;
  4630 : 03;
  4631 : F9;
  4632 : 06;
  4633 : 03;
  4634 : FC;
  4635 : 0E;
  4636 : 04;
  4637 : FF;
  4638 : 05;
  4639 : F7;
  4640 : FB;
  4641 : FE;
  4642 : 00;
  4643 : F5;
  4644 : 07;
  4645 : F9;
  4646 : 04;
  4647 : EB;
  4648 : 07;
  4649 : FA;
  4650 : F4;
  4651 : 00;
  4652 : F1;
  4653 : 04;
  4654 : FE;
  4655 : FA;
  4656 : 00;
  4657 : 03;
  4658 : 00;
  4659 : 03;
  4660 : 01;
  4661 : F3;
  4662 : 09;
  4663 : FC;
  4664 : 01;
  4665 : 06;
  4666 : FD;
  4667 : F8;
  4668 : 08;
  4669 : FB;
  4670 : 00;
  4671 : FD;
  4672 : F7;
  4673 : 03;
  4674 : 07;
  4675 : FC;
  4676 : 00;
  4677 : F1;
  4678 : 01;
  4679 : FE;
  4680 : 02;
  4681 : 06;
  4682 : 13;
  4683 : 12;
  4684 : 11;
  4685 : 03;
  4686 : F1;
  4687 : FF;
  4688 : FC;
  4689 : 14;
  4690 : F9;
  4691 : F8;
  4692 : F3;
  4693 : FE;
  4694 : 04;
  4695 : FF;
  4696 : 02;
  4697 : 02;
  4698 : FE;
  4699 : 14;
  4700 : FA;
  4701 : 03;
  4702 : 0A;
  4703 : 03;
  4704 : 00;
  4705 : 07;
  4706 : FA;
  4707 : F9;
  4708 : 05;
  4709 : FF;
  4710 : 0F;
  4711 : F3;
  4712 : 03;
  4713 : FB;
  4714 : F2;
  4715 : FE;
  4716 : F5;
  4717 : 07;
  4718 : FE;
  4719 : 00;
  4720 : 07;
  4721 : 04;
  4722 : 06;
  4723 : 0D;
  4724 : F6;
  4725 : F1;
  4726 : FB;
  4727 : F9;
  4728 : FC;
  4729 : 07;
  4730 : FF;
  4731 : 05;
  4732 : FC;
  4733 : FE;
  4734 : 06;
  4735 : 01;
  4736 : 04;
  4737 : 05;
  4738 : F4;
  4739 : 01;
  4740 : F6;
  4741 : F5;
  4742 : F7;
  4743 : 04;
  4744 : 09;
  4745 : 09;
  4746 : 19;
  4747 : 10;
  4748 : 10;
  4749 : FF;
  4750 : EB;
  4751 : 0A;
  4752 : 05;
  4753 : 1A;
  4754 : 06;
  4755 : F6;
  4756 : EE;
  4757 : F4;
  4758 : 04;
  4759 : F9;
  4760 : 0C;
  4761 : 00;
  4762 : FA;
  4763 : 08;
  4764 : 01;
  4765 : F2;
  4766 : 0E;
  4767 : FD;
  4768 : F9;
  4769 : 04;
  4770 : FE;
  4771 : F9;
  4772 : 03;
  4773 : F7;
  4774 : 0C;
  4775 : E6;
  4776 : 00;
  4777 : 06;
  4778 : EF;
  4779 : 02;
  4780 : EE;
  4781 : 06;
  4782 : FF;
  4783 : 04;
  4784 : 05;
  4785 : F9;
  4786 : 0B;
  4787 : 03;
  4788 : F7;
  4789 : F8;
  4790 : 08;
  4791 : F0;
  4792 : F7;
  4793 : 08;
  4794 : F1;
  4795 : 03;
  4796 : 09;
  4797 : 00;
  4798 : F7;
  4799 : 0B;
  4800 : FA;
  4801 : 00;
  4802 : F5;
  4803 : F9;
  4804 : FC;
  4805 : E8;
  4806 : 02;
  4807 : 0B;
  4808 : 02;
  4809 : 08;
  4810 : 18;
  4811 : 14;
  4812 : 0C;
  4813 : 04;
  4814 : F3;
  4815 : 05;
  4816 : 00;
  4817 : 1A;
  4818 : 07;
  4819 : F3;
  4820 : F0;
  4821 : FA;
  4822 : 07;
  4823 : F8;
  4824 : 17;
  4825 : 04;
  4826 : F3;
  4827 : 08;
  4828 : 02;
  4829 : FC;
  4830 : 16;
  4831 : F5;
  4832 : F0;
  4833 : FB;
  4834 : FD;
  4835 : EF;
  4836 : 05;
  4837 : 02;
  4838 : 0F;
  4839 : F7;
  4840 : FB;
  4841 : 01;
  4842 : EB;
  4843 : FC;
  4844 : EC;
  4845 : 03;
  4846 : FF;
  4847 : FC;
  4848 : FC;
  4849 : F8;
  4850 : 11;
  4851 : 0E;
  4852 : FC;
  4853 : F1;
  4854 : FD;
  4855 : F5;
  4856 : F7;
  4857 : 0A;
  4858 : F9;
  4859 : 00;
  4860 : FF;
  4861 : 06;
  4862 : 00;
  4863 : 00;
  4864 : 09;
  4865 : F7;
  4866 : 02;
  4867 : 03;
  4868 : 07;
  4869 : 04;
  4870 : 01;
  4871 : FD;
  4872 : 02;
  4873 : 0C;
  4874 : 0C;
  4875 : 15;
  4876 : 09;
  4877 : 04;
  4878 : EF;
  4879 : 04;
  4880 : 03;
  4881 : 0F;
  4882 : 17;
  4883 : F9;
  4884 : F3;
  4885 : 0E;
  4886 : 05;
  4887 : F9;
  4888 : 00;
  4889 : FF;
  4890 : FD;
  4891 : 0C;
  4892 : 00;
  4893 : 02;
  4894 : 10;
  4895 : FD;
  4896 : F4;
  4897 : FA;
  4898 : FF;
  4899 : 00;
  4900 : FF;
  4901 : FB;
  4902 : 11;
  4903 : FF;
  4904 : FE;
  4905 : FF;
  4906 : E6;
  4907 : 08;
  4908 : 00;
  4909 : 14;
  4910 : FE;
  4911 : 0C;
  4912 : 02;
  4913 : FB;
  4914 : 04;
  4915 : 0D;
  4916 : F7;
  4917 : F7;
  4918 : 05;
  4919 : FC;
  4920 : F7;
  4921 : 02;
  4922 : FB;
  4923 : FE;
  4924 : F6;
  4925 : 09;
  4926 : FA;
  4927 : 14;
  4928 : F5;
  4929 : 07;
  4930 : F3;
  4931 : 06;
  4932 : FF;
  4933 : EA;
  4934 : 03;
  4935 : 01;
  4936 : FB;
  4937 : 08;
  4938 : 1B;
  4939 : 11;
  4940 : 11;
  4941 : FE;
  4942 : F7;
  4943 : 04;
  4944 : 08;
  4945 : 23;
  4946 : 09;
  4947 : FB;
  4948 : EF;
  4949 : F5;
  4950 : F9;
  4951 : FF;
  4952 : 0E;
  4953 : FA;
  4954 : F6;
  4955 : 0D;
  4956 : 06;
  4957 : F0;
  4958 : 10;
  4959 : F9;
  4960 : F4;
  4961 : 04;
  4962 : FD;
  4963 : EB;
  4964 : 05;
  4965 : F9;
  4966 : 0F;
  4967 : E8;
  4968 : FF;
  4969 : 01;
  4970 : E8;
  4971 : 00;
  4972 : EC;
  4973 : FE;
  4974 : F9;
  4975 : FE;
  4976 : 01;
  4977 : 06;
  4978 : 04;
  4979 : 09;
  4980 : FF;
  4981 : F6;
  4982 : 04;
  4983 : F0;
  4984 : F6;
  4985 : 0E;
  4986 : F5;
  4987 : FF;
  4988 : 05;
  4989 : FD;
  4990 : 05;
  4991 : FE;
  4992 : FC;
  4993 : 00;
  4994 : F8;
  4995 : 00;
  4996 : 00;
  4997 : EC;
  4998 : F9;
  4999 : 08;
  5000 : FB;
  5001 : 09;
  5002 : 15;
  5003 : 18;
  5004 : 12;
  5005 : 00;
  5006 : F0;
  5007 : FB;
  5008 : FE;
  5009 : 20;
  5010 : F9;
  5011 : 00;
  5012 : EE;
  5013 : F6;
  5014 : F9;
  5015 : F5;
  5016 : 0F;
  5017 : 00;
  5018 : F5;
  5019 : 13;
  5020 : FE;
  5021 : FC;
  5022 : 0F;
  5023 : 04;
  5024 : F7;
  5025 : F8;
  5026 : 00;
  5027 : F9;
  5028 : FF;
  5029 : F8;
  5030 : 15;
  5031 : EA;
  5032 : 06;
  5033 : 03;
  5034 : EE;
  5035 : 05;
  5036 : F5;
  5037 : FB;
  5038 : 00;
  5039 : FF;
  5040 : FD;
  5041 : F8;
  5042 : 09;
  5043 : 04;
  5044 : FF;
  5045 : EF;
  5046 : FD;
  5047 : F4;
  5048 : 00;
  5049 : 03;
  5050 : F6;
  5051 : FF;
  5052 : 0E;
  5053 : F8;
  5054 : FF;
  5055 : 01;
  5056 : F8;
  5057 : 05;
  5058 : EA;
  5059 : 03;
  5060 : F3;
  5061 : F1;
  5062 : 05;
  5063 : 07;
  5064 : F3;
  5065 : 12;
  5066 : 1D;
  5067 : 0D;
  5068 : 0B;
  5069 : FB;
  5070 : EE;
  5071 : 03;
  5072 : F7;
  5073 : 1A;
  5074 : 08;
  5075 : F9;
  5076 : 01;
  5077 : F5;
  5078 : FF;
  5079 : F5;
  5080 : 17;
  5081 : 0F;
  5082 : FB;
  5083 : 0B;
  5084 : FE;
  5085 : F3;
  5086 : 1A;
  5087 : FE;
  5088 : F1;
  5089 : 01;
  5090 : 02;
  5091 : 01;
  5092 : 01;
  5093 : FB;
  5094 : 0E;
  5095 : FC;
  5096 : F9;
  5097 : FA;
  5098 : FA;
  5099 : 00;
  5100 : F7;
  5101 : 0D;
  5102 : 05;
  5103 : F9;
  5104 : 06;
  5105 : 05;
  5106 : 0B;
  5107 : 15;
  5108 : 0C;
  5109 : F2;
  5110 : 06;
  5111 : EA;
  5112 : F9;
  5113 : FD;
  5114 : FB;
  5115 : 04;
  5116 : FD;
  5117 : FE;
  5118 : 04;
  5119 : 0E;
  5120 : FF;
  5121 : 06;
  5122 : 01;
  5123 : F9;
  5124 : F3;
  5125 : EC;
  5126 : 0A;
  5127 : 0B;
  5128 : FE;
  5129 : 0C;
  5130 : 07;
  5131 : 0C;
  5132 : 0B;
  5133 : FC;
  5134 : E9;
  5135 : 1B;
  5136 : F9;
  5137 : 05;
  5138 : 04;
  5139 : F9;
  5140 : FC;
  5141 : F2;
  5142 : FC;
  5143 : FD;
  5144 : 0E;
  5145 : 0B;
  5146 : F6;
  5147 : 06;
  5148 : 09;
  5149 : FD;
  5150 : 0A;
  5151 : FC;
  5152 : F6;
  5153 : FF;
  5154 : F8;
  5155 : 0A;
  5156 : 04;
  5157 : 14;
  5158 : 0A;
  5159 : EF;
  5160 : F0;
  5161 : 00;
  5162 : FA;
  5163 : 01;
  5164 : ED;
  5165 : 08;
  5166 : FA;
  5167 : 08;
  5168 : 01;
  5169 : FA;
  5170 : 10;
  5171 : 15;
  5172 : 09;
  5173 : FC;
  5174 : F9;
  5175 : F9;
  5176 : FA;
  5177 : F8;
  5178 : FD;
  5179 : FF;
  5180 : FA;
  5181 : F7;
  5182 : 05;
  5183 : EE;
  5184 : 06;
  5185 : F7;
  5186 : 00;
  5187 : 03;
  5188 : F0;
  5189 : EB;
  5190 : 09;
  5191 : 06;
  5192 : F8;
  5193 : 09;
  5194 : 0B;
  5195 : 03;
  5196 : 07;
  5197 : 06;
  5198 : F5;
  5199 : 13;
  5200 : FE;
  5201 : 01;
  5202 : FA;
  5203 : F7;
  5204 : FA;
  5205 : FA;
  5206 : F8;
  5207 : FF;
  5208 : 0F;
  5209 : 0F;
  5210 : FD;
  5211 : 06;
  5212 : FB;
  5213 : 01;
  5214 : 01;
  5215 : FE;
  5216 : FC;
  5217 : 03;
  5218 : 00;
  5219 : 09;
  5220 : 0E;
  5221 : 0B;
  5222 : 0D;
  5223 : F5;
  5224 : F4;
  5225 : FB;
  5226 : FE;
  5227 : 04;
  5228 : EE;
  5229 : 0E;
  5230 : 04;
  5231 : 10;
  5232 : FB;
  5233 : 06;
  5234 : 14;
  5235 : 0C;
  5236 : 03;
  5237 : FC;
  5238 : 0B;
  5239 : FA;
  5240 : F5;
  5241 : F5;
  5242 : 03;
  5243 : F9;
  5244 : F8;
  5245 : FC;
  5246 : FB;
  5247 : F7;
  5248 : FA;
  5249 : FA;
  5250 : 11;
  5251 : 03;
  5252 : FC;
  5253 : F2;
  5254 : 05;
  5255 : 04;
  5256 : 03;
  5257 : 04;
  5258 : 11;
  5259 : 14;
  5260 : 12;
  5261 : 05;
  5262 : E8;
  5263 : 10;
  5264 : 02;
  5265 : 0E;
  5266 : 04;
  5267 : F2;
  5268 : E9;
  5269 : FD;
  5270 : FA;
  5271 : 00;
  5272 : 04;
  5273 : 0F;
  5274 : F4;
  5275 : 17;
  5276 : 02;
  5277 : 05;
  5278 : 0A;
  5279 : F8;
  5280 : 01;
  5281 : 03;
  5282 : FF;
  5283 : 04;
  5284 : F8;
  5285 : 05;
  5286 : 08;
  5287 : E7;
  5288 : FE;
  5289 : 04;
  5290 : F0;
  5291 : FE;
  5292 : F4;
  5293 : 0F;
  5294 : F9;
  5295 : 0B;
  5296 : 02;
  5297 : F9;
  5298 : 12;
  5299 : 0A;
  5300 : F3;
  5301 : FE;
  5302 : 05;
  5303 : F9;
  5304 : FB;
  5305 : FE;
  5306 : F5;
  5307 : 03;
  5308 : FA;
  5309 : FD;
  5310 : 04;
  5311 : F5;
  5312 : 03;
  5313 : 09;
  5314 : 01;
  5315 : FD;
  5316 : F0;
  5317 : EF;
  5318 : 04;
  5319 : 06;
  5320 : 0B;
  5321 : 14;
  5322 : 0F;
  5323 : 10;
  5324 : 06;
  5325 : FE;
  5326 : E8;
  5327 : 0E;
  5328 : FC;
  5329 : 12;
  5330 : 04;
  5331 : F4;
  5332 : F0;
  5333 : F4;
  5334 : FE;
  5335 : FD;
  5336 : 12;
  5337 : 0B;
  5338 : F7;
  5339 : 12;
  5340 : 08;
  5341 : 03;
  5342 : 05;
  5343 : 09;
  5344 : F9;
  5345 : FF;
  5346 : 01;
  5347 : FA;
  5348 : 03;
  5349 : 0F;
  5350 : 0B;
  5351 : E6;
  5352 : F6;
  5353 : 02;
  5354 : F4;
  5355 : F9;
  5356 : EB;
  5357 : 02;
  5358 : 01;
  5359 : FF;
  5360 : FD;
  5361 : FA;
  5362 : 09;
  5363 : 11;
  5364 : 06;
  5365 : F6;
  5366 : 02;
  5367 : F9;
  5368 : F7;
  5369 : 00;
  5370 : F6;
  5371 : 04;
  5372 : 00;
  5373 : FF;
  5374 : 03;
  5375 : F6;
  5376 : 07;
  5377 : 02;
  5378 : 06;
  5379 : FA;
  5380 : 07;
  5381 : 0C;
  5382 : FD;
  5383 : 05;
  5384 : 0F;
  5385 : 01;
  5386 : 08;
  5387 : 17;
  5388 : 0C;
  5389 : FF;
  5390 : F5;
  5391 : 0E;
  5392 : 04;
  5393 : 12;
  5394 : 09;
  5395 : F8;
  5396 : F4;
  5397 : 09;
  5398 : FD;
  5399 : 00;
  5400 : F1;
  5401 : 05;
  5402 : 00;
  5403 : 17;
  5404 : 08;
  5405 : FE;
  5406 : 02;
  5407 : F1;
  5408 : FE;
  5409 : 03;
  5410 : FA;
  5411 : 02;
  5412 : F4;
  5413 : 0C;
  5414 : 0C;
  5415 : F7;
  5416 : 05;
  5417 : FF;
  5418 : E7;
  5419 : FF;
  5420 : 01;
  5421 : 10;
  5422 : FA;
  5423 : 02;
  5424 : 0D;
  5425 : F8;
  5426 : 01;
  5427 : 05;
  5428 : FE;
  5429 : F6;
  5430 : 11;
  5431 : FC;
  5432 : F5;
  5433 : 03;
  5434 : F9;
  5435 : FB;
  5436 : F1;
  5437 : 05;
  5438 : F6;
  5439 : 0A;
  5440 : 01;
  5441 : 00;
  5442 : 0F;
  5443 : FA;
  5444 : EE;
  5445 : EC;
  5446 : FA;
  5447 : 06;
  5448 : 04;
  5449 : 12;
  5450 : 0C;
  5451 : 10;
  5452 : 0F;
  5453 : 06;
  5454 : EA;
  5455 : 0D;
  5456 : FC;
  5457 : 10;
  5458 : 02;
  5459 : F1;
  5460 : EC;
  5461 : F5;
  5462 : 07;
  5463 : FD;
  5464 : 0E;
  5465 : 09;
  5466 : F4;
  5467 : 0D;
  5468 : FD;
  5469 : 06;
  5470 : 0A;
  5471 : FC;
  5472 : F9;
  5473 : FA;
  5474 : 02;
  5475 : FC;
  5476 : FA;
  5477 : 03;
  5478 : 0A;
  5479 : EA;
  5480 : FB;
  5481 : 04;
  5482 : EC;
  5483 : 07;
  5484 : E8;
  5485 : 05;
  5486 : 04;
  5487 : 09;
  5488 : 04;
  5489 : 04;
  5490 : 0A;
  5491 : 05;
  5492 : 00;
  5493 : FD;
  5494 : 03;
  5495 : FB;
  5496 : FE;
  5497 : 05;
  5498 : FB;
  5499 : 06;
  5500 : FD;
  5501 : FD;
  5502 : FF;
  5503 : F4;
  5504 : 00;
  5505 : 08;
  5506 : 0E;
  5507 : 00;
  5508 : FD;
  5509 : F0;
  5510 : 0A;
  5511 : 0A;
  5512 : 0C;
  5513 : 0F;
  5514 : 0E;
  5515 : 0A;
  5516 : 08;
  5517 : 06;
  5518 : EF;
  5519 : 07;
  5520 : 03;
  5521 : 18;
  5522 : F9;
  5523 : F6;
  5524 : EC;
  5525 : FB;
  5526 : 02;
  5527 : F8;
  5528 : 05;
  5529 : 0B;
  5530 : FA;
  5531 : 10;
  5532 : 02;
  5533 : 03;
  5534 : 08;
  5535 : F8;
  5536 : F7;
  5537 : 07;
  5538 : FA;
  5539 : 03;
  5540 : F9;
  5541 : 02;
  5542 : 10;
  5543 : F7;
  5544 : F5;
  5545 : 04;
  5546 : EE;
  5547 : 06;
  5548 : ED;
  5549 : 02;
  5550 : FE;
  5551 : 0E;
  5552 : 05;
  5553 : 06;
  5554 : 13;
  5555 : 07;
  5556 : 03;
  5557 : 02;
  5558 : 03;
  5559 : EF;
  5560 : FB;
  5561 : FB;
  5562 : F9;
  5563 : FD;
  5564 : 02;
  5565 : F4;
  5566 : FC;
  5567 : FA;
  5568 : FD;
  5569 : 0C;
  5570 : 0E;
  5571 : FF;
  5572 : FD;
  5573 : F5;
  5574 : 00;
  5575 : 06;
  5576 : 01;
  5577 : 05;
  5578 : 17;
  5579 : 13;
  5580 : 0D;
  5581 : FB;
  5582 : EC;
  5583 : 03;
  5584 : FC;
  5585 : 1A;
  5586 : FD;
  5587 : F7;
  5588 : F2;
  5589 : 01;
  5590 : FC;
  5591 : F7;
  5592 : 02;
  5593 : 00;
  5594 : F8;
  5595 : 16;
  5596 : FA;
  5597 : 0C;
  5598 : 09;
  5599 : 07;
  5600 : FF;
  5601 : 07;
  5602 : FE;
  5603 : FC;
  5604 : F2;
  5605 : 04;
  5606 : 12;
  5607 : EB;
  5608 : FE;
  5609 : 00;
  5610 : EF;
  5611 : 03;
  5612 : ED;
  5613 : 00;
  5614 : 07;
  5615 : 02;
  5616 : FD;
  5617 : 03;
  5618 : 0A;
  5619 : 0F;
  5620 : FB;
  5621 : F6;
  5622 : 01;
  5623 : FB;
  5624 : 03;
  5625 : 06;
  5626 : F8;
  5627 : 09;
  5628 : 09;
  5629 : F9;
  5630 : FD;
  5631 : EF;
  5632 : 0F;
  5633 : F6;
  5634 : 02;
  5635 : FC;
  5636 : FC;
  5637 : F9;
  5638 : 0F;
  5639 : 08;
  5640 : FC;
  5641 : 03;
  5642 : 0E;
  5643 : 06;
  5644 : 0A;
  5645 : 04;
  5646 : EF;
  5647 : 14;
  5648 : F6;
  5649 : FC;
  5650 : 09;
  5651 : 01;
  5652 : 03;
  5653 : 06;
  5654 : FD;
  5655 : 01;
  5656 : 09;
  5657 : 0E;
  5658 : 06;
  5659 : 0E;
  5660 : FD;
  5661 : FC;
  5662 : 0A;
  5663 : 04;
  5664 : F8;
  5665 : 00;
  5666 : 06;
  5667 : 08;
  5668 : 09;
  5669 : 05;
  5670 : 06;
  5671 : F8;
  5672 : F2;
  5673 : FD;
  5674 : 03;
  5675 : FE;
  5676 : F8;
  5677 : 0E;
  5678 : 04;
  5679 : 0D;
  5680 : 08;
  5681 : 05;
  5682 : 0C;
  5683 : 0C;
  5684 : 06;
  5685 : FB;
  5686 : 07;
  5687 : F5;
  5688 : 01;
  5689 : F6;
  5690 : 00;
  5691 : 06;
  5692 : F7;
  5693 : FE;
  5694 : 05;
  5695 : FB;
  5696 : 0F;
  5697 : 00;
  5698 : 09;
  5699 : 00;
  5700 : F0;
  5701 : F0;
  5702 : 0D;
  5703 : 0B;
  5704 : F4;
  5705 : 11;
  5706 : 0A;
  5707 : FC;
  5708 : 0F;
  5709 : FA;
  5710 : E9;
  5711 : 12;
  5712 : FB;
  5713 : 02;
  5714 : FD;
  5715 : F7;
  5716 : FE;
  5717 : 01;
  5718 : FB;
  5719 : FE;
  5720 : 09;
  5721 : 15;
  5722 : FC;
  5723 : 07;
  5724 : 00;
  5725 : 08;
  5726 : 07;
  5727 : FA;
  5728 : F6;
  5729 : F8;
  5730 : 04;
  5731 : 03;
  5732 : 10;
  5733 : 17;
  5734 : 06;
  5735 : 04;
  5736 : F3;
  5737 : F9;
  5738 : FA;
  5739 : 02;
  5740 : F7;
  5741 : 14;
  5742 : FD;
  5743 : 09;
  5744 : 05;
  5745 : FD;
  5746 : 13;
  5747 : 18;
  5748 : 0B;
  5749 : FF;
  5750 : FD;
  5751 : F6;
  5752 : F8;
  5753 : F5;
  5754 : 01;
  5755 : FE;
  5756 : FC;
  5757 : 00;
  5758 : 04;
  5759 : F9;
  5760 : 0B;
  5761 : 04;
  5762 : 0B;
  5763 : 05;
  5764 : FC;
  5765 : F3;
  5766 : 07;
  5767 : 10;
  5768 : 00;
  5769 : 0D;
  5770 : 11;
  5771 : 04;
  5772 : 06;
  5773 : 02;
  5774 : F5;
  5775 : 0F;
  5776 : F8;
  5777 : 04;
  5778 : 09;
  5779 : FB;
  5780 : FE;
  5781 : 02;
  5782 : 02;
  5783 : F9;
  5784 : FE;
  5785 : 1B;
  5786 : 02;
  5787 : 11;
  5788 : 00;
  5789 : FE;
  5790 : 07;
  5791 : 01;
  5792 : F1;
  5793 : 07;
  5794 : F9;
  5795 : 0E;
  5796 : 02;
  5797 : 07;
  5798 : 05;
  5799 : FB;
  5800 : F0;
  5801 : F8;
  5802 : F9;
  5803 : 04;
  5804 : EF;
  5805 : 0D;
  5806 : 01;
  5807 : 19;
  5808 : 08;
  5809 : FC;
  5810 : 0C;
  5811 : 0D;
  5812 : 03;
  5813 : FC;
  5814 : 07;
  5815 : FD;
  5816 : 01;
  5817 : FB;
  5818 : 0F;
  5819 : 03;
  5820 : F5;
  5821 : F9;
  5822 : FB;
  5823 : FB;
  5824 : 03;
  5825 : FA;
  5826 : 02;
  5827 : FD;
  5828 : EC;
  5829 : ED;
  5830 : 0B;
  5831 : 10;
  5832 : 00;
  5833 : 19;
  5834 : 12;
  5835 : FC;
  5836 : 10;
  5837 : F8;
  5838 : EC;
  5839 : 1B;
  5840 : F2;
  5841 : 06;
  5842 : 05;
  5843 : F8;
  5844 : FE;
  5845 : EF;
  5846 : 00;
  5847 : F5;
  5848 : 0E;
  5849 : 1D;
  5850 : FA;
  5851 : FE;
  5852 : 01;
  5853 : 02;
  5854 : 04;
  5855 : 00;
  5856 : F4;
  5857 : 05;
  5858 : 05;
  5859 : 0F;
  5860 : 14;
  5861 : 12;
  5862 : 0B;
  5863 : FC;
  5864 : F5;
  5865 : 07;
  5866 : FC;
  5867 : FB;
  5868 : E5;
  5869 : 0E;
  5870 : FA;
  5871 : 1B;
  5872 : FC;
  5873 : FA;
  5874 : 18;
  5875 : 19;
  5876 : 11;
  5877 : 01;
  5878 : 03;
  5879 : F8;
  5880 : F3;
  5881 : EF;
  5882 : 0C;
  5883 : 05;
  5884 : 01;
  5885 : FA;
  5886 : 07;
  5887 : EA;
  5888 : 0F;
  5889 : FB;
  5890 : 05;
  5891 : FB;
  5892 : 04;
  5893 : 0D;
  5894 : FA;
  5895 : 04;
  5896 : 01;
  5897 : 05;
  5898 : 02;
  5899 : 03;
  5900 : 0B;
  5901 : FB;
  5902 : EE;
  5903 : 12;
  5904 : 0C;
  5905 : 01;
  5906 : 0E;
  5907 : EF;
  5908 : F1;
  5909 : 0B;
  5910 : 06;
  5911 : F5;
  5912 : 00;
  5913 : 11;
  5914 : 04;
  5915 : 11;
  5916 : FD;
  5917 : 01;
  5918 : 0C;
  5919 : F4;
  5920 : F4;
  5921 : 04;
  5922 : FE;
  5923 : 10;
  5924 : FD;
  5925 : 0C;
  5926 : 0A;
  5927 : F9;
  5928 : 06;
  5929 : F9;
  5930 : F5;
  5931 : 02;
  5932 : FB;
  5933 : 18;
  5934 : FA;
  5935 : 0F;
  5936 : 0F;
  5937 : 01;
  5938 : 05;
  5939 : 10;
  5940 : FF;
  5941 : 07;
  5942 : 0E;
  5943 : 03;
  5944 : FD;
  5945 : 05;
  5946 : FC;
  5947 : FC;
  5948 : F1;
  5949 : 07;
  5950 : F8;
  5951 : FB;
  5952 : 10;
  5953 : FD;
  5954 : 01;
  5955 : 06;
  5956 : E8;
  5957 : E9;
  5958 : 16;
  5959 : 11;
  5960 : F4;
  5961 : 0C;
  5962 : 0C;
  5963 : FA;
  5964 : 0C;
  5965 : 03;
  5966 : EA;
  5967 : 15;
  5968 : F2;
  5969 : 07;
  5970 : FF;
  5971 : FE;
  5972 : FF;
  5973 : FF;
  5974 : FE;
  5975 : F3;
  5976 : 15;
  5977 : 12;
  5978 : FD;
  5979 : 0B;
  5980 : FE;
  5981 : 04;
  5982 : 0F;
  5983 : 00;
  5984 : EE;
  5985 : 03;
  5986 : FE;
  5987 : 07;
  5988 : 10;
  5989 : 16;
  5990 : FD;
  5991 : FA;
  5992 : F6;
  5993 : FC;
  5994 : 00;
  5995 : 03;
  5996 : F6;
  5997 : 0C;
  5998 : 04;
  5999 : 1F;
  6000 : FF;
  6001 : F8;
  6002 : 13;
  6003 : 17;
  6004 : 0A;
  6005 : 07;
  6006 : FE;
  6007 : F7;
  6008 : FA;
  6009 : F6;
  6010 : 0B;
  6011 : 05;
  6012 : 03;
  6013 : FB;
  6014 : F8;
  6015 : ED;
  6016 : 06;
  6017 : FA;
  6018 : 01;
  6019 : F9;
  6020 : F6;
  6021 : F5;
  6022 : 10;
  6023 : 0F;
  6024 : FC;
  6025 : 16;
  6026 : 09;
  6027 : FD;
  6028 : 06;
  6029 : FD;
  6030 : E8;
  6031 : 0D;
  6032 : F6;
  6033 : 03;
  6034 : FA;
  6035 : F5;
  6036 : FA;
  6037 : FB;
  6038 : FD;
  6039 : F9;
  6040 : 10;
  6041 : 12;
  6042 : 05;
  6043 : 04;
  6044 : 08;
  6045 : 03;
  6046 : 0B;
  6047 : 02;
  6048 : F8;
  6049 : 06;
  6050 : F9;
  6051 : 0A;
  6052 : 0C;
  6053 : 10;
  6054 : 04;
  6055 : FC;
  6056 : F9;
  6057 : FE;
  6058 : 00;
  6059 : FE;
  6060 : F4;
  6061 : 0B;
  6062 : FF;
  6063 : 1A;
  6064 : 05;
  6065 : 00;
  6066 : 1A;
  6067 : 15;
  6068 : 0D;
  6069 : 09;
  6070 : 03;
  6071 : FC;
  6072 : FE;
  6073 : F2;
  6074 : 09;
  6075 : 03;
  6076 : FA;
  6077 : FD;
  6078 : FA;
  6079 : EF;
  6080 : 0E;
  6081 : 01;
  6082 : 04;
  6083 : F9;
  6084 : E9;
  6085 : E5;
  6086 : 14;
  6087 : 0B;
  6088 : FF;
  6089 : 14;
  6090 : 10;
  6091 : FD;
  6092 : 0C;
  6093 : 03;
  6094 : E7;
  6095 : 19;
  6096 : F7;
  6097 : 08;
  6098 : 06;
  6099 : FB;
  6100 : 04;
  6101 : F0;
  6102 : FC;
  6103 : FF;
  6104 : 11;
  6105 : 1D;
  6106 : FC;
  6107 : 04;
  6108 : 01;
  6109 : 03;
  6110 : 03;
  6111 : 01;
  6112 : EB;
  6113 : 07;
  6114 : F8;
  6115 : 0A;
  6116 : 14;
  6117 : 0F;
  6118 : 08;
  6119 : 02;
  6120 : F0;
  6121 : 05;
  6122 : 04;
  6123 : FC;
  6124 : F5;
  6125 : 16;
  6126 : 06;
  6127 : 1B;
  6128 : 05;
  6129 : 04;
  6130 : 1B;
  6131 : 1B;
  6132 : 0B;
  6133 : 0A;
  6134 : FD;
  6135 : FE;
  6136 : FD;
  6137 : F4;
  6138 : 0F;
  6139 : FE;
  6140 : 02;
  6141 : F9;
  6142 : FF;
  6143 : F1;
  6144 : FF;
  6145 : FD;
  6146 : 0B;
  6147 : FC;
  6148 : 03;
  6149 : FF;
  6150 : FF;
  6151 : 04;
  6152 : 05;
  6153 : FF;
  6154 : FF;
  6155 : 08;
  6156 : 0D;
  6157 : FD;
  6158 : FF;
  6159 : 00;
  6160 : FF;
  6161 : F8;
  6162 : 03;
  6163 : 02;
  6164 : F6;
  6165 : 08;
  6166 : FC;
  6167 : F9;
  6168 : 04;
  6169 : 07;
  6170 : 01;
  6171 : 0D;
  6172 : FE;
  6173 : FF;
  6174 : 0B;
  6175 : F7;
  6176 : F8;
  6177 : 04;
  6178 : 06;
  6179 : 01;
  6180 : FB;
  6181 : FF;
  6182 : 0B;
  6183 : 00;
  6184 : 03;
  6185 : 04;
  6186 : F7;
  6187 : 02;
  6188 : 07;
  6189 : 0C;
  6190 : 04;
  6191 : 03;
  6192 : 05;
  6193 : FF;
  6194 : 00;
  6195 : 03;
  6196 : FB;
  6197 : FD;
  6198 : 08;
  6199 : FA;
  6200 : FC;
  6201 : 02;
  6202 : 01;
  6203 : FD;
  6204 : FE;
  6205 : FE;
  6206 : 00;
  6207 : 0D;
  6208 : 08;
  6209 : 05;
  6210 : 04;
  6211 : 01;
  6212 : FA;
  6213 : FA;
  6214 : 04;
  6215 : FF;
  6216 : 00;
  6217 : FF;
  6218 : 06;
  6219 : 07;
  6220 : 03;
  6221 : F9;
  6222 : FC;
  6223 : FA;
  6224 : 02;
  6225 : 06;
  6226 : FF;
  6227 : 04;
  6228 : 01;
  6229 : 05;
  6230 : 00;
  6231 : 04;
  6232 : 05;
  6233 : FA;
  6234 : FB;
  6235 : 08;
  6236 : 05;
  6237 : 03;
  6238 : 0C;
  6239 : FD;
  6240 : 04;
  6241 : 05;
  6242 : 00;
  6243 : 09;
  6244 : 07;
  6245 : FB;
  6246 : FE;
  6247 : 01;
  6248 : 04;
  6249 : FF;
  6250 : F5;
  6251 : 04;
  6252 : FE;
  6253 : 07;
  6254 : FA;
  6255 : FF;
  6256 : 01;
  6257 : 06;
  6258 : FD;
  6259 : FC;
  6260 : FD;
  6261 : FB;
  6262 : 01;
  6263 : F9;
  6264 : 01;
  6265 : FB;
  6266 : FA;
  6267 : FB;
  6268 : FB;
  6269 : 00;
  6270 : FE;
  6271 : 0F;
  6272 : 07;
  6273 : FA;
  6274 : 03;
  6275 : F9;
  6276 : 00;
  6277 : 01;
  6278 : FE;
  6279 : 01;
  6280 : 01;
  6281 : 07;
  6282 : 05;
  6283 : 08;
  6284 : 05;
  6285 : F9;
  6286 : FB;
  6287 : 07;
  6288 : 00;
  6289 : F7;
  6290 : 00;
  6291 : F5;
  6292 : FE;
  6293 : 0D;
  6294 : 07;
  6295 : FB;
  6296 : 01;
  6297 : 03;
  6298 : 06;
  6299 : 12;
  6300 : 02;
  6301 : FE;
  6302 : 08;
  6303 : FF;
  6304 : FE;
  6305 : 07;
  6306 : FA;
  6307 : 03;
  6308 : 04;
  6309 : 05;
  6310 : 06;
  6311 : 01;
  6312 : F5;
  6313 : FD;
  6314 : F1;
  6315 : 05;
  6316 : FA;
  6317 : 0F;
  6318 : 07;
  6319 : 0A;
  6320 : 0F;
  6321 : 03;
  6322 : FD;
  6323 : 07;
  6324 : FF;
  6325 : 01;
  6326 : 0C;
  6327 : 07;
  6328 : F9;
  6329 : FA;
  6330 : 05;
  6331 : F9;
  6332 : F4;
  6333 : FA;
  6334 : 01;
  6335 : 05;
  6336 : 09;
  6337 : 05;
  6338 : 0C;
  6339 : 04;
  6340 : FC;
  6341 : 00;
  6342 : 0E;
  6343 : 00;
  6344 : FE;
  6345 : FD;
  6346 : 0E;
  6347 : FC;
  6348 : 0D;
  6349 : 03;
  6350 : F5;
  6351 : 03;
  6352 : 08;
  6353 : 02;
  6354 : FB;
  6355 : 01;
  6356 : FF;
  6357 : 06;
  6358 : FF;
  6359 : F7;
  6360 : 05;
  6361 : 04;
  6362 : 03;
  6363 : 05;
  6364 : 08;
  6365 : 00;
  6366 : 05;
  6367 : F6;
  6368 : 01;
  6369 : 05;
  6370 : 03;
  6371 : 01;
  6372 : 0C;
  6373 : 0C;
  6374 : 02;
  6375 : FE;
  6376 : F0;
  6377 : 03;
  6378 : F2;
  6379 : 04;
  6380 : FF;
  6381 : 0D;
  6382 : FA;
  6383 : 13;
  6384 : 0C;
  6385 : 02;
  6386 : 00;
  6387 : FD;
  6388 : 02;
  6389 : 00;
  6390 : 0F;
  6391 : F7;
  6392 : F9;
  6393 : F8;
  6394 : 0A;
  6395 : 01;
  6396 : FB;
  6397 : 03;
  6398 : FB;
  6399 : 05;
  6400 : 0F;
  6401 : FB;
  6402 : 05;
  6403 : FF;
  6404 : FF;
  6405 : 0D;
  6406 : FE;
  6407 : 05;
  6408 : 06;
  6409 : FC;
  6410 : 0D;
  6411 : 08;
  6412 : 08;
  6413 : FB;
  6414 : F6;
  6415 : 11;
  6416 : 13;
  6417 : FE;
  6418 : 0A;
  6419 : FE;
  6420 : F1;
  6421 : 14;
  6422 : F9;
  6423 : FE;
  6424 : F4;
  6425 : 0A;
  6426 : 00;
  6427 : 15;
  6428 : FA;
  6429 : FB;
  6430 : 0B;
  6431 : F8;
  6432 : 03;
  6433 : 07;
  6434 : FA;
  6435 : 0D;
  6436 : FE;
  6437 : 0E;
  6438 : 0C;
  6439 : 02;
  6440 : FE;
  6441 : 00;
  6442 : ED;
  6443 : 00;
  6444 : 01;
  6445 : 16;
  6446 : FB;
  6447 : 05;
  6448 : 05;
  6449 : 03;
  6450 : FE;
  6451 : FB;
  6452 : F6;
  6453 : F7;
  6454 : 0C;
  6455 : 05;
  6456 : FC;
  6457 : 07;
  6458 : FC;
  6459 : 00;
  6460 : F8;
  6461 : 01;
  6462 : 04;
  6463 : 11;
  6464 : 06;
  6465 : FF;
  6466 : 00;
  6467 : 00;
  6468 : F4;
  6469 : F9;
  6470 : 09;
  6471 : 09;
  6472 : EF;
  6473 : 09;
  6474 : 10;
  6475 : 03;
  6476 : 06;
  6477 : FC;
  6478 : 00;
  6479 : FC;
  6480 : 07;
  6481 : F7;
  6482 : F1;
  6483 : F9;
  6484 : FD;
  6485 : 09;
  6486 : 04;
  6487 : F8;
  6488 : 04;
  6489 : 01;
  6490 : FC;
  6491 : 07;
  6492 : 01;
  6493 : FF;
  6494 : 06;
  6495 : FA;
  6496 : F7;
  6497 : 00;
  6498 : FF;
  6499 : 06;
  6500 : 04;
  6501 : 04;
  6502 : FB;
  6503 : 00;
  6504 : F9;
  6505 : 04;
  6506 : FE;
  6507 : 00;
  6508 : FD;
  6509 : 04;
  6510 : 04;
  6511 : 13;
  6512 : 01;
  6513 : FC;
  6514 : 08;
  6515 : 04;
  6516 : FA;
  6517 : F4;
  6518 : 0C;
  6519 : 00;
  6520 : 03;
  6521 : FA;
  6522 : 03;
  6523 : F8;
  6524 : FD;
  6525 : 0B;
  6526 : FC;
  6527 : 05;
  6528 : 03;
  6529 : F7;
  6530 : 01;
  6531 : FD;
  6532 : 04;
  6533 : 04;
  6534 : 08;
  6535 : 03;
  6536 : F5;
  6537 : 07;
  6538 : 0D;
  6539 : FD;
  6540 : 10;
  6541 : FB;
  6542 : 05;
  6543 : 06;
  6544 : 00;
  6545 : FB;
  6546 : F9;
  6547 : FF;
  6548 : FB;
  6549 : 09;
  6550 : 03;
  6551 : F8;
  6552 : FA;
  6553 : FD;
  6554 : FC;
  6555 : 11;
  6556 : F9;
  6557 : 00;
  6558 : 0B;
  6559 : FA;
  6560 : FD;
  6561 : 05;
  6562 : FE;
  6563 : 08;
  6564 : 08;
  6565 : 06;
  6566 : 05;
  6567 : FC;
  6568 : FD;
  6569 : F9;
  6570 : FB;
  6571 : 04;
  6572 : FE;
  6573 : 05;
  6574 : FF;
  6575 : 0E;
  6576 : 09;
  6577 : F9;
  6578 : FB;
  6579 : 06;
  6580 : F7;
  6581 : 00;
  6582 : 04;
  6583 : FB;
  6584 : F8;
  6585 : FC;
  6586 : 05;
  6587 : F7;
  6588 : 07;
  6589 : 04;
  6590 : FF;
  6591 : 0B;
  6592 : 09;
  6593 : 03;
  6594 : 02;
  6595 : 05;
  6596 : F2;
  6597 : F3;
  6598 : 0F;
  6599 : 08;
  6600 : F9;
  6601 : 09;
  6602 : 0B;
  6603 : 08;
  6604 : 07;
  6605 : 01;
  6606 : F2;
  6607 : 11;
  6608 : FD;
  6609 : FE;
  6610 : F4;
  6611 : 03;
  6612 : 06;
  6613 : FB;
  6614 : 04;
  6615 : F5;
  6616 : 0A;
  6617 : 10;
  6618 : FE;
  6619 : 09;
  6620 : FD;
  6621 : FE;
  6622 : 0F;
  6623 : FD;
  6624 : F2;
  6625 : FB;
  6626 : 07;
  6627 : 05;
  6628 : 07;
  6629 : 10;
  6630 : 05;
  6631 : FC;
  6632 : EE;
  6633 : 04;
  6634 : FC;
  6635 : F9;
  6636 : F0;
  6637 : 05;
  6638 : 01;
  6639 : 12;
  6640 : 0D;
  6641 : FE;
  6642 : 0F;
  6643 : 02;
  6644 : 03;
  6645 : FB;
  6646 : 08;
  6647 : 01;
  6648 : F9;
  6649 : FC;
  6650 : 04;
  6651 : FC;
  6652 : FE;
  6653 : 01;
  6654 : 05;
  6655 : 09;
  6656 : 05;
  6657 : 04;
  6658 : 00;
  6659 : FB;
  6660 : 04;
  6661 : 07;
  6662 : 00;
  6663 : F9;
  6664 : FD;
  6665 : FA;
  6666 : 05;
  6667 : 04;
  6668 : 04;
  6669 : 01;
  6670 : FB;
  6671 : 06;
  6672 : 03;
  6673 : 06;
  6674 : 07;
  6675 : FE;
  6676 : FA;
  6677 : 08;
  6678 : F9;
  6679 : FB;
  6680 : 00;
  6681 : FD;
  6682 : FD;
  6683 : 02;
  6684 : 08;
  6685 : 08;
  6686 : 07;
  6687 : 02;
  6688 : 03;
  6689 : F9;
  6690 : F8;
  6691 : FE;
  6692 : 04;
  6693 : 03;
  6694 : 05;
  6695 : FB;
  6696 : 07;
  6697 : FD;
  6698 : FA;
  6699 : F8;
  6700 : 03;
  6701 : 03;
  6702 : 02;
  6703 : 05;
  6704 : 05;
  6705 : FD;
  6706 : F9;
  6707 : 02;
  6708 : F7;
  6709 : FA;
  6710 : 0B;
  6711 : 02;
  6712 : 02;
  6713 : 01;
  6714 : FD;
  6715 : 04;
  6716 : FC;
  6717 : F9;
  6718 : 04;
  6719 : 0D;
  6720 : FF;
  6721 : 02;
  6722 : 05;
  6723 : 01;
  6724 : FE;
  6725 : 00;
  6726 : FC;
  6727 : FD;
  6728 : 00;
  6729 : 07;
  6730 : 02;
  6731 : 0B;
  6732 : 0A;
  6733 : FC;
  6734 : 00;
  6735 : 07;
  6736 : 01;
  6737 : 01;
  6738 : 05;
  6739 : 06;
  6740 : FA;
  6741 : 03;
  6742 : 01;
  6743 : 01;
  6744 : FA;
  6745 : F9;
  6746 : FD;
  6747 : 02;
  6748 : 08;
  6749 : 01;
  6750 : FE;
  6751 : 01;
  6752 : 04;
  6753 : 04;
  6754 : 00;
  6755 : FD;
  6756 : F9;
  6757 : FA;
  6758 : 03;
  6759 : FD;
  6760 : 08;
  6761 : 05;
  6762 : FD;
  6763 : FD;
  6764 : 0B;
  6765 : 05;
  6766 : FD;
  6767 : 05;
  6768 : 06;
  6769 : 05;
  6770 : 02;
  6771 : FE;
  6772 : 01;
  6773 : 03;
  6774 : 04;
  6775 : FF;
  6776 : 05;
  6777 : 0A;
  6778 : FE;
  6779 : 06;
  6780 : 03;
  6781 : FB;
  6782 : FA;
  6783 : 03;
  6784 : 06;
  6785 : FF;
  6786 : 02;
  6787 : FD;
  6788 : 08;
  6789 : 11;
  6790 : 04;
  6791 : 00;
  6792 : FF;
  6793 : 01;
  6794 : FF;
  6795 : 0E;
  6796 : 00;
  6797 : 04;
  6798 : 03;
  6799 : 09;
  6800 : 0C;
  6801 : 05;
  6802 : 05;
  6803 : F7;
  6804 : F8;
  6805 : 0F;
  6806 : FC;
  6807 : FC;
  6808 : F7;
  6809 : FD;
  6810 : F8;
  6811 : 0A;
  6812 : 04;
  6813 : 02;
  6814 : 02;
  6815 : 01;
  6816 : 03;
  6817 : FA;
  6818 : F7;
  6819 : 00;
  6820 : 02;
  6821 : 00;
  6822 : 08;
  6823 : 04;
  6824 : 0A;
  6825 : 07;
  6826 : F9;
  6827 : 06;
  6828 : 05;
  6829 : 0E;
  6830 : FE;
  6831 : FE;
  6832 : 03;
  6833 : F8;
  6834 : F9;
  6835 : FF;
  6836 : 03;
  6837 : F9;
  6838 : 08;
  6839 : 09;
  6840 : 02;
  6841 : 08;
  6842 : 02;
  6843 : FF;
  6844 : F5;
  6845 : 02;
  6846 : FE;
  6847 : 0E;
  6848 : 04;
  6849 : 04;
  6850 : 09;
  6851 : 00;
  6852 : 0B;
  6853 : 07;
  6854 : 06;
  6855 : 02;
  6856 : FB;
  6857 : 01;
  6858 : FD;
  6859 : 04;
  6860 : 04;
  6861 : 01;
  6862 : 05;
  6863 : 07;
  6864 : 0D;
  6865 : F9;
  6866 : FC;
  6867 : FD;
  6868 : 03;
  6869 : 09;
  6870 : 00;
  6871 : 02;
  6872 : 00;
  6873 : 00;
  6874 : 01;
  6875 : 01;
  6876 : FC;
  6877 : FD;
  6878 : FF;
  6879 : 00;
  6880 : 09;
  6881 : 07;
  6882 : F9;
  6883 : 05;
  6884 : 00;
  6885 : FA;
  6886 : 05;
  6887 : FB;
  6888 : 01;
  6889 : 00;
  6890 : FA;
  6891 : 07;
  6892 : 07;
  6893 : FF;
  6894 : FE;
  6895 : 09;
  6896 : 00;
  6897 : 00;
  6898 : FE;
  6899 : FC;
  6900 : 00;
  6901 : FA;
  6902 : 06;
  6903 : FC;
  6904 : 03;
  6905 : 07;
  6906 : 02;
  6907 : 02;
  6908 : FE;
  6909 : 02;
  6910 : FB;
  6911 : 07;
  6912 : 09;
  6913 : FD;
  6914 : 08;
  6915 : FE;
  6916 : 08;
  6917 : 0B;
  6918 : FE;
  6919 : 09;
  6920 : 0F;
  6921 : FD;
  6922 : 0A;
  6923 : 06;
  6924 : FF;
  6925 : 01;
  6926 : F7;
  6927 : 0A;
  6928 : 0E;
  6929 : 03;
  6930 : 08;
  6931 : FA;
  6932 : F9;
  6933 : 0E;
  6934 : 06;
  6935 : 04;
  6936 : E9;
  6937 : FE;
  6938 : 06;
  6939 : 0C;
  6940 : 07;
  6941 : 02;
  6942 : 00;
  6943 : F4;
  6944 : 04;
  6945 : 01;
  6946 : FB;
  6947 : 0A;
  6948 : F9;
  6949 : 0C;
  6950 : 08;
  6951 : FB;
  6952 : 05;
  6953 : 02;
  6954 : F1;
  6955 : 00;
  6956 : 0A;
  6957 : 0B;
  6958 : F8;
  6959 : 08;
  6960 : 06;
  6961 : 01;
  6962 : FB;
  6963 : FD;
  6964 : F0;
  6965 : 05;
  6966 : 12;
  6967 : 05;
  6968 : F7;
  6969 : FE;
  6970 : FC;
  6971 : 04;
  6972 : F8;
  6973 : 0C;
  6974 : FD;
  6975 : 09;
  6976 : FF;
  6977 : 02;
  6978 : FA;
  6979 : FC;
  6980 : 00;
  6981 : 0A;
  6982 : 04;
  6983 : F9;
  6984 : FE;
  6985 : FB;
  6986 : 04;
  6987 : 06;
  6988 : 02;
  6989 : 01;
  6990 : 02;
  6991 : FD;
  6992 : 0F;
  6993 : FF;
  6994 : 05;
  6995 : 09;
  6996 : F6;
  6997 : 0D;
  6998 : 02;
  6999 : 06;
  7000 : FC;
  7001 : FC;
  7002 : FA;
  7003 : 09;
  7004 : FF;
  7005 : 02;
  7006 : 09;
  7007 : 05;
  7008 : 04;
  7009 : 00;
  7010 : 00;
  7011 : 03;
  7012 : FB;
  7013 : F9;
  7014 : FC;
  7015 : 01;
  7016 : 03;
  7017 : 06;
  7018 : FA;
  7019 : FF;
  7020 : 0B;
  7021 : FE;
  7022 : 01;
  7023 : 02;
  7024 : 0E;
  7025 : 03;
  7026 : FB;
  7027 : 00;
  7028 : FB;
  7029 : 05;
  7030 : 09;
  7031 : FB;
  7032 : FF;
  7033 : 09;
  7034 : 02;
  7035 : 01;
  7036 : 01;
  7037 : FC;
  7038 : 04;
  7039 : 08;
  7040 : 06;
  7041 : 08;
  7042 : 08;
  7043 : 04;
  7044 : 08;
  7045 : 07;
  7046 : FE;
  7047 : 03;
  7048 : 05;
  7049 : 04;
  7050 : 04;
  7051 : 0A;
  7052 : 09;
  7053 : 03;
  7054 : FE;
  7055 : 03;
  7056 : 0E;
  7057 : FD;
  7058 : FE;
  7059 : 04;
  7060 : 01;
  7061 : 00;
  7062 : 00;
  7063 : 02;
  7064 : F6;
  7065 : F7;
  7066 : 03;
  7067 : 06;
  7068 : FE;
  7069 : 06;
  7070 : FE;
  7071 : 02;
  7072 : 00;
  7073 : 06;
  7074 : 00;
  7075 : 07;
  7076 : FA;
  7077 : 00;
  7078 : 04;
  7079 : F6;
  7080 : 01;
  7081 : 02;
  7082 : 01;
  7083 : 06;
  7084 : 09;
  7085 : 04;
  7086 : 02;
  7087 : FE;
  7088 : 07;
  7089 : 02;
  7090 : F9;
  7091 : FB;
  7092 : 01;
  7093 : FD;
  7094 : FE;
  7095 : FC;
  7096 : FC;
  7097 : 0C;
  7098 : FA;
  7099 : 02;
  7100 : 01;
  7101 : 06;
  7102 : FE;
  7103 : 06;
  7104 : 06;
  7105 : 05;
  7106 : 05;
  7107 : FD;
  7108 : 02;
  7109 : 0A;
  7110 : 01;
  7111 : F8;
  7112 : 08;
  7113 : 00;
  7114 : 05;
  7115 : 02;
  7116 : 05;
  7117 : 03;
  7118 : 09;
  7119 : 04;
  7120 : 08;
  7121 : FB;
  7122 : FA;
  7123 : 09;
  7124 : FD;
  7125 : 02;
  7126 : FF;
  7127 : F9;
  7128 : F8;
  7129 : 01;
  7130 : FA;
  7131 : 05;
  7132 : 01;
  7133 : 04;
  7134 : FC;
  7135 : 03;
  7136 : 05;
  7137 : 07;
  7138 : FA;
  7139 : 02;
  7140 : FD;
  7141 : 01;
  7142 : 06;
  7143 : FC;
  7144 : 0B;
  7145 : F9;
  7146 : F6;
  7147 : FB;
  7148 : 0A;
  7149 : 04;
  7150 : FA;
  7151 : 06;
  7152 : 0B;
  7153 : FB;
  7154 : FF;
  7155 : F7;
  7156 : 04;
  7157 : 04;
  7158 : 0A;
  7159 : FB;
  7160 : 07;
  7161 : 02;
  7162 : FC;
  7163 : FB;
  7164 : 02;
  7165 : FB;
  7166 : FB;
  7167 : 11;
  7168 : 01;
  7169 : FF;
  7170 : 09;
  7171 : 07;
  7172 : 01;
  7173 : FF;
  7174 : FB;
  7175 : 00;
  7176 : 00;
  7177 : 07;
  7178 : 08;
  7179 : 07;
  7180 : FE;
  7181 : 03;
  7182 : FC;
  7183 : 0C;
  7184 : FF;
  7185 : FD;
  7186 : 01;
  7187 : 06;
  7188 : 00;
  7189 : 06;
  7190 : FB;
  7191 : FB;
  7192 : F7;
  7193 : 01;
  7194 : 07;
  7195 : 05;
  7196 : 00;
  7197 : 06;
  7198 : 0C;
  7199 : FB;
  7200 : 03;
  7201 : FB;
  7202 : 00;
  7203 : 02;
  7204 : FF;
  7205 : 06;
  7206 : 05;
  7207 : F8;
  7208 : FE;
  7209 : 01;
  7210 : FA;
  7211 : FE;
  7212 : FF;
  7213 : 03;
  7214 : FF;
  7215 : 00;
