DEPTH = 640;
WIDTH = 8;
ADDRESS_RADIX = UNS;
DATA_RADIX = HEX;
CONTENT BEGIN
  0 : EA;
  1 : 01;
  2 : FE;
  3 : F5;
  4 : FC;
  5 : D0;
  6 : EE;
  7 : F8;
  8 : 19;
  9 : E0;
  10 : FA;
  11 : 04;
  12 : 11;
  13 : 11;
  14 : EE;
  15 : 15;
  16 : F9;
  17 : 15;
  18 : CF;
  19 : FE;
  20 : 1A;
  21 : FB;
  22 : 2B;
  23 : FF;
  24 : 1A;
  25 : FB;
  26 : 08;
  27 : DE;
  28 : F6;
  29 : 1C;
  30 : F8;
  31 : 0C;
  32 : EA;
  33 : FC;
  34 : 1C;
  35 : 00;
  36 : FD;
  37 : FA;
  38 : E6;
  39 : D8;
  40 : DF;
  41 : FB;
  42 : F5;
  43 : F8;
  44 : D7;
  45 : F1;
  46 : F9;
  47 : 15;
  48 : F6;
  49 : F3;
  50 : FB;
  51 : FF;
  52 : 08;
  53 : FC;
  54 : E9;
  55 : 16;
  56 : FF;
  57 : F3;
  58 : F8;
  59 : FE;
  60 : E6;
  61 : 11;
  62 : FB;
  63 : 04;
  64 : F6;
  65 : 20;
  66 : 0C;
  67 : 08;
  68 : 0B;
  69 : 1B;
  70 : 11;
  71 : 0F;
  72 : D8;
  73 : EE;
  74 : 11;
  75 : FD;
  76 : 29;
  77 : D4;
  78 : DE;
  79 : E8;
  80 : 15;
  81 : 08;
  82 : 09;
  83 : CB;
  84 : 21;
  85 : F9;
  86 : 1C;
  87 : F2;
  88 : 20;
  89 : 1B;
  90 : 01;
  91 : 17;
  92 : F2;
  93 : 0F;
  94 : FE;
  95 : 16;
  96 : CC;
  97 : D7;
  98 : DE;
  99 : F0;
  100 : FE;
  101 : 0D;
  102 : 0A;
  103 : 16;
  104 : 03;
  105 : 07;
  106 : 0D;
  107 : F6;
  108 : ED;
  109 : F4;
  110 : F9;
  111 : 18;
  112 : F9;
  113 : F9;
  114 : FA;
  115 : 03;
  116 : F1;
  117 : 04;
  118 : DD;
  119 : EA;
  120 : 04;
  121 : F1;
  122 : 06;
  123 : FB;
  124 : E8;
  125 : FE;
  126 : F7;
  127 : 0C;
  128 : 15;
  129 : 03;
  130 : F5;
  131 : 0D;
  132 : 01;
  133 : 03;
  134 : 12;
  135 : 0F;
  136 : 0D;
  137 : F6;
  138 : E1;
  139 : FC;
  140 : F4;
  141 : ED;
  142 : EF;
  143 : 14;
  144 : 28;
  145 : F1;
  146 : E3;
  147 : 0B;
  148 : 15;
  149 : 09;
  150 : 10;
  151 : FB;
  152 : E3;
  153 : 09;
  154 : FF;
  155 : D2;
  156 : F5;
  157 : 07;
  158 : F6;
  159 : E7;
  160 : F0;
  161 : E3;
  162 : 18;
  163 : CE;
  164 : 15;
  165 : F3;
  166 : 0D;
  167 : EF;
  168 : 07;
  169 : F0;
  170 : F9;
  171 : F5;
  172 : DB;
  173 : 04;
  174 : 0F;
  175 : 0B;
  176 : 00;
  177 : 0E;
  178 : 01;
  179 : 00;
  180 : 16;
  181 : 10;
  182 : F3;
  183 : 0E;
  184 : 0D;
  185 : F6;
  186 : 0B;
  187 : 0D;
  188 : 16;
  189 : B8;
  190 : CA;
  191 : F3;
  192 : 06;
  193 : E6;
  194 : 0A;
  195 : F1;
  196 : F6;
  197 : D2;
  198 : D6;
  199 : EA;
  200 : DC;
  201 : 1D;
  202 : 12;
  203 : 04;
  204 : CE;
  205 : 09;
  206 : ED;
  207 : 0F;
  208 : 10;
  209 : F7;
  210 : 20;
  211 : 05;
  212 : F9;
  213 : F3;
  214 : F0;
  215 : F9;
  216 : FD;
  217 : EE;
  218 : 05;
  219 : E2;
  220 : F6;
  221 : 11;
  222 : F5;
  223 : C3;
  224 : F8;
  225 : EA;
  226 : EC;
  227 : 1D;
  228 : E5;
  229 : 03;
  230 : 0C;
  231 : 0F;
  232 : EE;
  233 : FA;
  234 : 04;
  235 : FA;
  236 : 20;
  237 : F6;
  238 : 1C;
  239 : 18;
  240 : F1;
  241 : F1;
  242 : 02;
  243 : 07;
  244 : 14;
  245 : 04;
  246 : E7;
  247 : FD;
  248 : 01;
  249 : 0A;
  250 : 0C;
  251 : 02;
  252 : 02;
  253 : 0A;
  254 : 03;
  255 : 0B;
  256 : FA;
  257 : 19;
  258 : FE;
  259 : 08;
  260 : 07;
  261 : 2B;
  262 : 12;
  263 : D9;
  264 : 0A;
  265 : 03;
  266 : 1E;
  267 : FF;
  268 : 1F;
  269 : 11;
  270 : 19;
  271 : E1;
  272 : FE;
  273 : D7;
  274 : E6;
  275 : 13;
  276 : 0D;
  277 : F8;
  278 : C0;
  279 : 0B;
  280 : E1;
  281 : 14;
  282 : 0D;
  283 : DD;
  284 : 03;
  285 : 13;
  286 : 09;
  287 : 06;
  288 : E8;
  289 : FC;
  290 : 08;
  291 : 20;
  292 : 15;
  293 : FF;
  294 : E5;
  295 : ED;
  296 : E2;
  297 : 02;
  298 : 04;
  299 : FE;
  300 : 15;
  301 : 02;
  302 : EC;
  303 : F4;
  304 : 0D;
  305 : 0D;
  306 : F3;
  307 : 03;
  308 : 02;
  309 : 03;
  310 : 10;
  311 : D9;
  312 : 0D;
  313 : 0A;
  314 : FB;
  315 : 09;
  316 : 00;
  317 : 01;
  318 : 13;
  319 : 01;
  320 : C4;
  321 : E4;
  322 : 05;
  323 : F1;
  324 : 00;
  325 : E6;
  326 : DD;
  327 : 10;
  328 : 06;
  329 : 1F;
  330 : EF;
  331 : F9;
  332 : F7;
  333 : 19;
  334 : E8;
  335 : E7;
  336 : C4;
  337 : 14;
  338 : F9;
  339 : 17;
  340 : 0F;
  341 : 07;
  342 : F7;
  343 : FF;
  344 : 1D;
  345 : 13;
  346 : 05;
  347 : 38;
  348 : 09;
  349 : D3;
  350 : 0A;
  351 : DC;
  352 : F9;
  353 : F5;
  354 : E3;
  355 : EF;
  356 : DE;
  357 : 07;
  358 : 0E;
  359 : 09;
  360 : 25;
  361 : 0A;
  362 : 03;
  363 : 08;
  364 : F4;
  365 : FD;
  366 : DC;
  367 : ED;
  368 : FD;
  369 : F4;
  370 : 09;
  371 : F5;
  372 : 05;
  373 : ED;
  374 : 1F;
  375 : FF;
  376 : 03;
  377 : 06;
  378 : 07;
  379 : 02;
  380 : 10;
  381 : 0E;
  382 : 1A;
  383 : 0B;
  384 : 16;
  385 : FF;
  386 : F6;
  387 : F3;
  388 : FB;
  389 : F8;
  390 : 22;
  391 : 0D;
  392 : 1C;
  393 : E6;
  394 : 09;
  395 : F6;
  396 : D8;
  397 : F6;
  398 : FE;
  399 : 10;
  400 : C7;
  401 : FB;
  402 : F7;
  403 : FF;
  404 : CE;
  405 : F7;
  406 : 15;
  407 : 06;
  408 : 1B;
  409 : 1B;
  410 : 04;
  411 : F7;
  412 : FA;
  413 : DA;
  414 : 03;
  415 : 23;
  416 : E9;
  417 : 19;
  418 : FF;
  419 : 18;
  420 : C6;
  421 : 0D;
  422 : 01;
  423 : BF;
  424 : FF;
  425 : FC;
  426 : 00;
  427 : 07;
  428 : C4;
  429 : F4;
  430 : C9;
  431 : 01;
  432 : FB;
  433 : F8;
  434 : F4;
  435 : 07;
  436 : 07;
  437 : 12;
  438 : 05;
  439 : D4;
  440 : FB;
  441 : FF;
  442 : FD;
  443 : FA;
  444 : 05;
  445 : 13;
  446 : 16;
  447 : F4;
  448 : 1A;
  449 : 17;
  450 : FE;
  451 : 02;
  452 : 0C;
  453 : F4;
  454 : 13;
  455 : E1;
  456 : EE;
  457 : F0;
  458 : 1A;
  459 : FB;
  460 : 17;
  461 : 09;
  462 : EF;
  463 : E4;
  464 : E9;
  465 : 01;
  466 : D5;
  467 : 0C;
  468 : 11;
  469 : FC;
  470 : F5;
  471 : 04;
  472 : 3F;
  473 : B7;
  474 : 04;
  475 : 0E;
  476 : F0;
  477 : 20;
  478 : 05;
  479 : FD;
  480 : 09;
  481 : 12;
  482 : ED;
  483 : 1C;
  484 : 0A;
  485 : 02;
  486 : 03;
  487 : 06;
  488 : 06;
  489 : F7;
  490 : FB;
  491 : F1;
  492 : 05;
  493 : 0C;
  494 : 22;
  495 : F8;
  496 : 04;
  497 : 06;
  498 : 0E;
  499 : F7;
  500 : EC;
  501 : 1D;
  502 : D2;
  503 : 21;
  504 : FB;
  505 : FF;
  506 : 02;
  507 : FF;
  508 : F8;
  509 : DA;
  510 : EA;
  511 : 05;
  512 : F1;
  513 : B9;
  514 : F1;
  515 : EF;
  516 : 0B;
  517 : 03;
  518 : 0C;
  519 : 10;
  520 : 14;
  521 : 06;
  522 : DA;
  523 : 08;
  524 : 0B;
  525 : 06;
  526 : 10;
  527 : EF;
  528 : 16;
  529 : 15;
  530 : 0B;
  531 : D3;
  532 : E9;
  533 : FD;
  534 : E1;
  535 : 00;
  536 : DB;
  537 : D3;
  538 : F3;
  539 : FF;
  540 : 03;
  541 : F2;
  542 : F9;
  543 : 14;
  544 : 01;
  545 : 08;
  546 : 14;
  547 : 0E;
  548 : 08;
  549 : F6;
  550 : 0F;
  551 : EF;
  552 : F1;
  553 : F4;
  554 : 0B;
  555 : F9;
  556 : 18;
  557 : 07;
  558 : ED;
  559 : 14;
  560 : FD;
  561 : 05;
  562 : F9;
  563 : 0D;
  564 : FF;
  565 : 07;
  566 : 19;
  567 : 11;
  568 : 09;
  569 : 09;
  570 : F4;
  571 : FF;
  572 : FC;
  573 : 05;
  574 : DA;
  575 : 0C;
  576 : 00;
  577 : 1A;
  578 : FD;
  579 : 10;
  580 : FF;
  581 : F3;
  582 : E8;
  583 : 01;
  584 : 03;
  585 : 0E;
  586 : B7;
  587 : FA;
  588 : 01;
  589 : 13;
  590 : 12;
  591 : 15;
  592 : 0F;
  593 : EE;
  594 : 0D;
  595 : 19;
  596 : 0A;
  597 : FA;
  598 : 09;
  599 : EF;
  600 : DA;
  601 : 0C;
  602 : 04;
  603 : 0A;
  604 : 08;
  605 : E5;
  606 : F0;
  607 : 17;
  608 : 1B;
  609 : 0E;
  610 : EC;
  611 : D7;
  612 : 14;
  613 : 00;
  614 : E4;
  615 : 00;
  616 : E5;
  617 : FF;
  618 : EE;
  619 : 0D;
  620 : 06;
  621 : 01;
  622 : 04;
  623 : DB;
  624 : F6;
  625 : 02;
  626 : 03;
  627 : FB;
  628 : E9;
  629 : AF;
  630 : F4;
  631 : F9;
  632 : 00;
  633 : F5;
  634 : F7;
  635 : 0D;
  636 : FF;
  637 : 10;
  638 : 08;
  639 : 00;
END;
