DEPTH = 640;
WIDTH = 8;
ADDRESS_RADIX = UNS;
DATA_RADIX = HEX;
CONTENT BEGIN
  0 : 04;
  1 : F0;
  2 : 15;
  3 : 15;
  4 : B5;
  5 : 32;
  6 : 29;
  7 : 2B;
  8 : E7;
  9 : 03;
  10 : 0B;
  11 : 0A;
  12 : EF;
  13 : FE;
  14 : E3;
  15 : E0;
  16 : E3;
  17 : 21;
  18 : 23;
  19 : EE;
  20 : 2F;
  21 : 01;
  22 : 2A;
  23 : D4;
  24 : 12;
  25 : B3;
  26 : 1B;
  27 : 09;
  28 : E6;
  29 : 21;
  30 : 20;
  31 : 08;
  32 : 0B;
  33 : FE;
  34 : E5;
  35 : E8;
  36 : 06;
  37 : F9;
  38 : FB;
  39 : ED;
  40 : F7;
  41 : EB;
  42 : F9;
  43 : C5;
  44 : 1B;
  45 : 18;
  46 : E2;
  47 : 1A;
  48 : FE;
  49 : EE;
  50 : FE;
  51 : 11;
  52 : E2;
  53 : DE;
  54 : 3E;
  55 : CB;
  56 : D2;
  57 : 17;
  58 : B2;
  59 : 2A;
  60 : D3;
  61 : E4;
  62 : 09;
  63 : DD;
  64 : E7;
  65 : EF;
  66 : 1B;
  67 : 13;
  68 : 26;
  69 : FF;
  70 : FC;
  71 : 1F;
  72 : 04;
  73 : 26;
  74 : 0F;
  75 : FC;
  76 : 2C;
  77 : 2D;
  78 : 1C;
  79 : B6;
  80 : 1F;
  81 : 31;
  82 : E6;
  83 : 06;
  84 : 2E;
  85 : CB;
  86 : D2;
  87 : 29;
  88 : EC;
  89 : 03;
  90 : 0D;
  91 : E0;
  92 : EB;
  93 : 19;
  94 : 08;
  95 : 13;
  96 : 12;
  97 : 12;
  98 : FA;
  99 : 2D;
  100 : 12;
  101 : 10;
  102 : FC;
  103 : 0E;
  104 : B0;
  105 : 28;
  106 : 29;
  107 : EC;
  108 : FA;
  109 : ED;
  110 : D9;
  111 : 2A;
  112 : FC;
  113 : 04;
  114 : 1F;
  115 : 2A;
  116 : 03;
  117 : E7;
  118 : F0;
  119 : E9;
  120 : D9;
  121 : 19;
  122 : 10;
  123 : F9;
  124 : D0;
  125 : F5;
  126 : F7;
  127 : EF;
  128 : F6;
  129 : 17;
  130 : FE;
  131 : 00;
  132 : 18;
  133 : E4;
  134 : E6;
  135 : 07;
  136 : 1C;
  137 : 1F;
  138 : 1D;
  139 : 1A;
  140 : FC;
  141 : D8;
  142 : 14;
  143 : 2D;
  144 : 0D;
  145 : 04;
  146 : D7;
  147 : F2;
  148 : 18;
  149 : F4;
  150 : 09;
  151 : 26;
  152 : 9B;
  153 : CD;
  154 : E5;
  155 : 22;
  156 : 00;
  157 : EF;
  158 : F2;
  159 : EF;
  160 : DC;
  161 : 2F;
  162 : 14;
  163 : FD;
  164 : D6;
  165 : 26;
  166 : C8;
  167 : DA;
  168 : C0;
  169 : 13;
  170 : 13;
  171 : 3C;
  172 : CA;
  173 : FB;
  174 : D4;
  175 : 2D;
  176 : 02;
  177 : F6;
  178 : FC;
  179 : 2F;
  180 : FA;
  181 : 35;
  182 : E6;
  183 : 10;
  184 : 36;
  185 : CB;
  186 : 07;
  187 : 46;
  188 : D5;
  189 : AD;
  190 : 1B;
  191 : FA;
  192 : 22;
  193 : 27;
  194 : FA;
  195 : 10;
  196 : CA;
  197 : 16;
  198 : 21;
  199 : 24;
  200 : 02;
  201 : D7;
  202 : FD;
  203 : 13;
  204 : ED;
  205 : E3;
  206 : FF;
  207 : DD;
  208 : 23;
  209 : C9;
  210 : EF;
  211 : 29;
  212 : 2A;
  213 : 28;
  214 : FE;
  215 : B7;
  216 : F5;
  217 : 27;
  218 : ED;
  219 : 1C;
  220 : EF;
  221 : F4;
  222 : 08;
  223 : F0;
  224 : F4;
  225 : E2;
  226 : 00;
  227 : EC;
  228 : 22;
  229 : F9;
  230 : 09;
  231 : 09;
  232 : EB;
  233 : C8;
  234 : 25;
  235 : D8;
  236 : FA;
  237 : 1B;
  238 : 2F;
  239 : FC;
  240 : 12;
  241 : B6;
  242 : DB;
  243 : 23;
  244 : D2;
  245 : 30;
  246 : 23;
  247 : CD;
  248 : 0F;
  249 : 06;
  250 : 31;
  251 : FC;
  252 : EB;
  253 : D0;
  254 : E8;
  255 : CA;
  256 : 2F;
  257 : FA;
  258 : BF;
  259 : D7;
  260 : 0A;
  261 : C8;
  262 : 21;
  263 : 16;
  264 : D3;
  265 : 16;
  266 : E5;
  267 : 1B;
  268 : FB;
  269 : 1B;
  270 : 17;
  271 : 3D;
  272 : 28;
  273 : 03;
  274 : 00;
  275 : 00;
  276 : 10;
  277 : 57;
  278 : AF;
  279 : C2;
  280 : DF;
  281 : E8;
  282 : 12;
  283 : 15;
  284 : EA;
  285 : F1;
  286 : 1F;
  287 : F8;
  288 : E5;
  289 : 13;
  290 : 11;
  291 : 04;
  292 : 08;
  293 : 40;
  294 : B7;
  295 : D8;
  296 : 10;
  297 : 27;
  298 : EE;
  299 : 0D;
  300 : D9;
  301 : E5;
  302 : F9;
  303 : FC;
  304 : DE;
  305 : 33;
  306 : 30;
  307 : 03;
  308 : D6;
  309 : 0C;
  310 : D3;
  311 : FF;
  312 : EA;
  313 : 0D;
  314 : 09;
  315 : E1;
  316 : F5;
  317 : D0;
  318 : 10;
  319 : 11;
  320 : D2;
  321 : 23;
  322 : 10;
  323 : 18;
  324 : 1E;
  325 : F7;
  326 : FF;
  327 : 24;
  328 : 28;
  329 : E7;
  330 : DF;
  331 : F9;
  332 : EE;
  333 : F6;
  334 : EB;
  335 : E6;
  336 : F4;
  337 : DD;
  338 : 0B;
  339 : 14;
  340 : 1C;
  341 : 0B;
  342 : E5;
  343 : E5;
  344 : F5;
  345 : FF;
  346 : DC;
  347 : F3;
  348 : 00;
  349 : E9;
  350 : 09;
  351 : 01;
  352 : 25;
  353 : 1C;
  354 : 0F;
  355 : F4;
  356 : 23;
  357 : FF;
  358 : E8;
  359 : 0C;
  360 : 29;
  361 : EA;
  362 : 1D;
  363 : CF;
  364 : 14;
  365 : 1F;
  366 : 2F;
  367 : F0;
  368 : 23;
  369 : F5;
  370 : CE;
  371 : 25;
  372 : E9;
  373 : 09;
  374 : 01;
  375 : D7;
  376 : 22;
  377 : 20;
  378 : 25;
  379 : 01;
  380 : D6;
  381 : 14;
  382 : F0;
  383 : F4;
  384 : 27;
  385 : 19;
  386 : 03;
  387 : 22;
  388 : F7;
  389 : 1F;
  390 : 09;
  391 : DD;
  392 : 1F;
  393 : 1D;
  394 : A8;
  395 : D9;
  396 : C3;
  397 : 2C;
  398 : FA;
  399 : FC;
  400 : F1;
  401 : EB;
  402 : EC;
  403 : 18;
  404 : 1B;
  405 : 1C;
  406 : E7;
  407 : 05;
  408 : ED;
  409 : 0E;
  410 : 1A;
  411 : F7;
  412 : EA;
  413 : F8;
  414 : 0A;
  415 : 06;
  416 : F9;
  417 : F8;
  418 : F4;
  419 : E7;
  420 : 1A;
  421 : C7;
  422 : F9;
  423 : 1F;
  424 : 12;
  425 : F7;
  426 : 05;
  427 : E1;
  428 : 13;
  429 : 14;
  430 : DE;
  431 : 0C;
  432 : DE;
  433 : F2;
  434 : FF;
  435 : E0;
  436 : 06;
  437 : 00;
  438 : F1;
  439 : 02;
  440 : F9;
  441 : E8;
  442 : 23;
  443 : E4;
  444 : 25;
  445 : FE;
  446 : EC;
  447 : D7;
  448 : FF;
  449 : DB;
  450 : F4;
  451 : FC;
  452 : 0C;
  453 : F7;
  454 : 03;
  455 : ED;
  456 : 1E;
  457 : 22;
  458 : A7;
  459 : E3;
  460 : F5;
  461 : 0E;
  462 : FF;
  463 : FF;
  464 : 22;
  465 : 05;
  466 : 1B;
  467 : EE;
  468 : E6;
  469 : DC;
  470 : 36;
  471 : 1D;
  472 : 1E;
  473 : DA;
  474 : D9;
  475 : C5;
  476 : 11;
  477 : 09;
  478 : 02;
  479 : 12;
  480 : 18;
  481 : 33;
  482 : 2F;
  483 : D4;
  484 : DB;
  485 : FD;
  486 : DC;
  487 : 0C;
  488 : F8;
  489 : B4;
  490 : 1D;
  491 : F1;
  492 : DF;
  493 : E8;
  494 : E2;
  495 : F6;
  496 : 15;
  497 : F4;
  498 : 06;
  499 : EA;
  500 : EE;
  501 : 1A;
  502 : E8;
  503 : F5;
  504 : F2;
  505 : E5;
  506 : 1D;
  507 : C9;
  508 : 0F;
  509 : 08;
  510 : 11;
  511 : D6;
  512 : BE;
  513 : D8;
  514 : 08;
  515 : 16;
  516 : 35;
  517 : 1D;
  518 : 02;
  519 : 01;
  520 : E5;
  521 : E1;
  522 : EF;
  523 : E7;
  524 : 14;
  525 : FE;
  526 : 0A;
  527 : FC;
  528 : 1B;
  529 : 22;
  530 : D1;
  531 : FF;
  532 : EA;
  533 : 35;
  534 : 35;
  535 : C8;
  536 : 18;
  537 : 0A;
  538 : 1F;
  539 : 02;
  540 : 0F;
  541 : 0D;
  542 : 2B;
  543 : E5;
  544 : 10;
  545 : 15;
  546 : 14;
  547 : D2;
  548 : D5;
  549 : F0;
  550 : 37;
  551 : 19;
  552 : 0C;
  553 : C0;
  554 : FB;
  555 : E9;
  556 : F2;
  557 : 11;
  558 : 29;
  559 : 1C;
  560 : E6;
  561 : EB;
  562 : FB;
  563 : 03;
  564 : FB;
  565 : 0E;
  566 : 1D;
  567 : FB;
  568 : FB;
  569 : EC;
  570 : EA;
  571 : 0A;
  572 : F6;
  573 : 07;
  574 : 18;
  575 : 14;
  576 : CF;
  577 : 0F;
  578 : 06;
  579 : F7;
  580 : 20;
  581 : D3;
  582 : 0C;
  583 : EC;
  584 : 0E;
  585 : E7;
  586 : 17;
  587 : B2;
  588 : F2;
  589 : 22;
  590 : F7;
  591 : 04;
  592 : B7;
  593 : 31;
  594 : F7;
  595 : F5;
  596 : BD;
  597 : C6;
  598 : E8;
  599 : 3B;
  600 : 18;
  601 : 01;
  602 : 0D;
  603 : 1C;
  604 : C9;
  605 : 2F;
  606 : E3;
  607 : C1;
  608 : 1F;
  609 : ED;
  610 : CD;
  611 : 31;
  612 : 08;
  613 : ED;
  614 : E2;
  615 : CA;
  616 : 0D;
  617 : 1F;
  618 : CF;
  619 : D8;
  620 : 1B;
  621 : 02;
  622 : F1;
  623 : F0;
  624 : 0F;
  625 : F6;
  626 : EC;
  627 : 16;
  628 : 04;
  629 : E0;
  630 : 2F;
  631 : D9;
  632 : 35;
  633 : ED;
  634 : B1;
  635 : 1C;
  636 : D4;
  637 : 1C;
  638 : EA;
  639 : E1;
END;
